/**
  ******************************************************************************
  * @file    sin_data_params.c
  * @author  AST Embedded Analytics Research Platform
  * @date    2026-04-16T23:02:37+0200
  * @brief   AI Tool Automatic Code Generator for Embedded NN computing
  ******************************************************************************
  * Copyright (c) 2026 STMicroelectronics.
  * All rights reserved.
  *
  * This software is licensed under terms that can be found in the LICENSE file
  * in the root directory of this software component.
  * If no LICENSE file comes with this software, it is provided AS-IS.
  ******************************************************************************
  */

#include "sin_data_params.h"


/**  Activations Section  ****************************************************/
ai_handle g_sin_activations_table[1 + 2] = {
  AI_HANDLE_PTR(AI_MAGIC_MARKER),
  AI_HANDLE_PTR(NULL),
  AI_HANDLE_PTR(AI_MAGIC_MARKER),
};




/**  Weights Section  ********************************************************/
AI_ALIGNED(32)
const ai_u64 s_sin_weights_array_u64[577] = {
  0xbf3ef4973e27cd45U, 0x3dc7e31abedc80e1U, 0x3f0ecd26beadd8ddU, 0xbe386528bdb0ae6dU,
  0xbe2d47973ee0b7f7U, 0xbdd1edb5be341addU, 0x3e81fa6cbe3bf053U, 0xbdb55dde3e664f05U,
  0x3d3cd87d3ede635aU, 0xbf2428fabea13f9dU, 0x3f25e2c03e2eb8c1U, 0x3de0b31fbddf05c0U,
  0x3eb38e113dfb56ceU, 0x3ec85ca7bdb8b5edU, 0x3e9f33bd3e427e06U, 0xbe18ff11bd8046d2U,
  0xbcd18582bf13b0e4U, 0xbd5c3ffcbd7a28c5U, 0x3db2f4aebd0d4995U, 0x3e2f363a3d875b2aU,
  0x3f3fb4adbe1b1955U, 0x3e2d5c333f34da93U, 0xbf167c683f41420dU, 0xb97aa954bc2cd773U,
  0xbe2077e63daacf1dU, 0xbe2a29403e432049U, 0xbdf16837bf3068eaU, 0xbe968eca3e427610U,
  0xbe9d168ebed58911U, 0xbf24327d3d7136fbU, 0xbe3dcd98bf42580bU, 0x3f07719f3c9d66c8U,
  0xbe4dca2c3e6974b1U, 0xbbb7f30e3e356e5dU, 0xbe2ff9bebe8aaae4U, 0x3e6b6ce8be55ebbaU,
  0x3d99c81b3e9573eaU, 0x3c84ed333e9d9b44U, 0xbe8e33e13eaa156aU, 0x3e99ddeb3e5333e7U,
  0x3df8a7c03ca18813U, 0x3e96e84dbe67d785U, 0x3cd5f1c0bde0d5ddU, 0xbe6a65b3be21982aU,
  0xbe39d79fbe8aa3e9U, 0xbe4460cb3e29c011U, 0xbe3d67163dce5e13U, 0xbe09db6ebe6a353fU,
  0xbe8f4cbbbe9453c0U, 0x3d8f3915be66b953U, 0x3eb51441be5beda9U, 0x3e4f12a9bd62b8f5U,
  0x3f0f8ff93e319e0eU, 0x3e376b713efeda20U, 0xbe4730023f450c38U, 0xbde34e61bca752daU,
  0xbeb73be63e0e03c7U, 0xbe13bb9f3ea466b8U, 0x3eb845c7bf057292U, 0xbeca832e3eeb837eU,
  0xbe9f3a79bee2467eU, 0xbdd874ad3e85fa76U, 0xbe8adcc6bf0fe4acU, 0x3ee58b513e3e3166U,
  0xbc9d2d7bbd0fca83U, 0xbd8244073eb3f00fU, 0xbe3556ac3e2ac711U, 0xbe0d68be3e59874fU,
  0xbdae64013d995544U, 0xbe6384033d98b603U, 0xbe9e079ebe04a709U, 0x3e07a7653de51742U,
  0xbd50c650be0859fcU, 0x3eb9ca483e5e8774U, 0xbeeaf788bd01ac21U, 0xbe93b828be97e17cU,
  0xbe697693be60d27dU, 0x3e1cdacb3e50f342U, 0xbec384edbd0cc48bU, 0xbe2862e13e909c01U,
  0xbe9c602ebde7ebe4U, 0xbebec0853e3bd5bcU, 0xbe6e87bb3e60aa60U, 0x3c876dd63dc51d4dU,
  0xbdcc1f193ca900acU, 0xbdb494593d42d81aU, 0xbe9b07573f0b2fa6U, 0x3cdcdd99be362fdbU,
  0x3cf648093e6c4e58U, 0x3de6242abce1723eU, 0x3e071f29becab5a3U, 0xbeab5eb4bde5bf67U,
  0xbe00a1e2befaa0acU, 0xbd9ade683e9e7797U, 0xbd063c93be28212dU, 0x3e76a70a3e9dbd62U,
  0xbc22af3a3e1638cbU, 0xbe5c422c3d0e0017U, 0x3d49df6c3e06ee9eU, 0xbe1f04ef3e29597aU,
  0x3e014b823d3d9688U, 0xbe5e88b83b945cf3U, 0xbe9680283adf30d3U, 0xbebaaf97be873168U,
  0xbe0696e8bccdbb97U, 0x3d3ec452bd10fc88U, 0xbdad4d493da4643fU, 0x3e8ff2383d1cb267U,
  0x3baee388bd8a2f12U, 0x3da9db3ebdf11bfcU, 0x3e8b7f8c3e06f810U, 0x3eaa04f33cb479c5U,
  0x3ecb1745be0e475dU, 0x3e4e7de33ed2ac4dU, 0xbece6d583e08d404U, 0x3dbf70983defe47fU,
  0x3e590b31bcf4f27aU, 0x3e2b21d7be9591c9U, 0xbcd1f922bcfa4c06U, 0x3d6d5d4bbe7dde51U,
  0x3e204638bdb47dbaU, 0x3d92b67b3e98e495U, 0xbe2b87403e0a358eU, 0xbe90108dbf11eaa3U,
  0xbebc20d93cd011ccU, 0xbe82d3fcbe49304eU, 0x3daf3f9dbcbf492eU, 0xbd59f3523d327155U,
  0xbdb19799be15ff2eU, 0xbeab59473d787ca5U, 0xbd6fe6c03dfcf4c1U, 0xbe66dd89be20a805U,
  0x3da880133e303006U, 0xbdbe1ec8bdfe9323U, 0x3e25f3a8bd16f84eU, 0x3ea538c0bbe8e68fU,
  0x3e089c693e3e2a32U, 0x3ea3c3bd3e3903d1U, 0x3e8239a5be64d00fU, 0xbe2fdfb63e97521fU,
  0x3dd49188bec26de1U, 0xbe504dfcbda2f3b2U, 0x3db77f15bd86af7eU, 0xbdc283703e47b951U,
  0x3e3bf1f5bcce2642U, 0xbd36f8eabe63d30fU, 0xbc7f7d07bdecdcbeU, 0x3e82d6f0bea628dfU,
  0xbe38aca03e5b86e2U, 0xbe9a6d6fbe82dce3U, 0x3d06dfd6becdaf42U, 0xbc2a4867be239156U,
  0x3e1df557be95cfdcU, 0x3dd5277d3db04175U, 0x3d41f9ed3c6fe313U, 0x3e51e0863e147a78U,
  0xbe945b423edecdabU, 0xbead73a33b55e959U, 0xbd929b083eca6f39U, 0xbeae0c60be19b967U,
  0x3d85e893be94af79U, 0xbdd1dc863e097d78U, 0x3ec082ec3d50d5e0U, 0x3e910b393ec21066U,
  0x3f20932abcfaeec9U, 0x3ebcd1903f8ea0feU, 0xbee833713f9dba64U, 0xbda41bc73e8f0f3aU,
  0xbeb4f852bde43686U, 0xbde861ccbe745c4bU, 0x3e8202edbf08d51dU, 0xbeb055d6bf268849U,
  0xbe737b79bf1a0111U, 0xbf022726be6df84bU, 0x3e691361bf15148bU, 0x3c03763f398856ceU,
  0x3e8e252abe407839U, 0xbe44ffecbd8cd8cfU, 0x3cfc82bbbe964aedU, 0x3e415876be2a981cU,
  0x3eb281293d82b449U, 0x3e66b2993ec22f8bU, 0x3e8ec14f3eb1b5f3U, 0x3eb4e381bda67cc8U,
  0xbe2cf93d3e63d692U, 0x3e774802bdabe012U, 0xbe3f08463e42cc65U, 0x3e266f3c3ecdc754U,
  0x3e25b8eb3d64dd46U, 0x3e6ef74cbe2208a0U, 0x3dd392213e1f8741U, 0xbc7e48ce3e04d75cU,
  0xbea5fd4bbe81269dU, 0x3e1fc7d1be9c2e87U, 0xbd9c0a8b3d59cdb7U, 0x3e8b016f3e6f588fU,
  0x3d0ab86b3e04b253U, 0xbd0cd0733e7dbb59U, 0xbe80251f3ddf6be8U, 0x3e41665b3e805825U,
  0xbeadfa0bbc3f4390U, 0xbea139bfba761573U, 0xbe611a5cbe8a60a4U, 0xbd5cec5c3ebaa02aU,
  0x3e2b5fbfbea891ecU, 0x3d8697973cc238bdU, 0xbae45f59be39105fU, 0xbcd9bd98bce01354U,
  0x3e2466e7be1a7040U, 0xbe9c1e3c3d890aa2U, 0x3e3e6da53d0665bdU, 0x3ea46ce33e9c5153U,
  0x3dd3b5323e7f6eb4U, 0x3e472985be06005eU, 0x3e6bd7043e92ec4aU, 0x3e63533cbe7270e2U,
  0x3def880abe109d36U, 0x3e9213e2bd9692b0U, 0x3e8e5f4dbe5ce2d9U, 0x3c1d249f3e0ae608U,
  0x3e8cc8353e426125U, 0x3eb17e683eac9ccbU, 0x3e351e76be1d0b0fU, 0x3e13b4b23d0cdecfU,
  0x3e4bffff3e309b88U, 0x3ddc386e3c6b89bdU, 0xbe83bfc43e0a9813U, 0xbeb60b6a3d0d6c9bU,
  0xbee7ccbcbe7a5f30U, 0xbe96ff6dbf242e85U, 0x3ee5b631bf487275U, 0xbe4c53a83e13a2aaU,
  0x3ecd417fbe21b61fU, 0xbe0f9af8be33b750U, 0xbea73daf3f14a459U, 0x3e2e4088bec2a14bU,
  0x3cbcfe423e5c275aU, 0x3e83111fbd8acbfdU, 0x3e837c603de2732aU, 0xbdfb3b393d5fcdb2U,
  0xbdc2ad28bd8ca389U, 0xbe0235783e6cfbacU, 0x3e7e94ae3ccd0c1dU, 0x3d7730e7bcdf61edU,
  0x3e454691bdba3fc4U, 0xbec3b304beb48af3U, 0x3c96eac4bd815543U, 0xbea5f6e03eaeab2dU,
  0x3e69cb263e0a2653U, 0xbe804e2c3e92ceeaU, 0x3c2c48fabd67b71aU, 0xbc05fe4bbe5597e7U,
  0xbe98f487be4467e9U, 0x3d3abd27be6b2b5bU, 0x3cab2fd03e1bda2dU, 0xbe2e64723e40a17cU,
  0x3d087f213e39d079U, 0x3ea1eafabde2be9cU, 0x3de9a066bdb5007fU, 0x3e648f653e505213U,
  0x3d8d2d12be9151abU, 0xbe2001a9bed80b35U, 0xbdda8f1fbef7b896U, 0xbe9cd7e03dafd328U,
  0x3d222cfbbce90070U, 0x3e8370503e7380d1U, 0xbe56ec5dbd10558cU, 0x3e80ab09be970bb6U,
  0xbda7fb543d11e009U, 0x3e4fcb57bd7bf182U, 0xbe4277a33d05623eU, 0xbe3e6825be8e6406U,
  0x3eb34a4ebe98b342U, 0x3e4b155bbdbda5d7U, 0xbea9465c3ea155e7U, 0xbba79ad43bf843c4U,
  0x3ccaff6abe631e9eU, 0x3e5cddad3e9799afU, 0xbe875f293ede9100U, 0xbdb890d7be95ce92U,
  0x3c4524d5becdf131U, 0xbd8dea1b3e997118U, 0xbe673c7b3e73e77fU, 0x3e369dadbe9f4277U,
  0xbe97bb1fbeb8f670U, 0xbec95309bdd422f3U, 0xbcce16f0be9473ecU, 0x3df717833de83095U,
  0xbe74e22bbcfdd467U, 0x3d0c2fd2beb3a9b1U, 0x3e833251bd8475b3U, 0x3d2720533d8c8e88U,
  0x3ebb04733e82b4d9U, 0x3ec27f693eeb57f7U, 0x3e23a0b53e5c17b6U, 0x3ebc4b603e61c1deU,
  0xbeccdccf3d0f467aU, 0xbe766d2ebd3180d8U, 0xbe1982febeed40a8U, 0xbe6be8fa3e9ff707U,
  0xbe54bcd1be3d221cU, 0x3ca721f53e025fe9U, 0x3e542a68be6d67edU, 0x3e9ed6133cbda6faU,
  0x3e02b5ad3eb74cb6U, 0xbe8225e83e531709U, 0x3e946bd4beaab308U, 0xbcc3bea7bc817325U,
  0xbe297a763d17cb39U, 0x3c8ae078be17a267U, 0xbd837c5bbdf04ed9U, 0x3e7b1fa83eb78bfaU,
  0xbddbf0e5be028e28U, 0x3e356fe7bead81d2U, 0x3e4b1da4be6e4d72U, 0xbd81bc7d3e000a8aU,
  0xbd39c5a93e35f156U, 0x3e9051d3ba85d87cU, 0xbd9025063eb26df8U, 0xbebb9ed13e79540eU,
  0xbe8acd7dbd999a15U, 0xbe10b9debe2e9755U, 0x3e152ca1be678643U, 0xbe339b07beaa11bdU,
  0x3e3ac500bdb44475U, 0xbeb887aabe90164eU, 0x3d9bbe8ebe49e268U, 0x3d3c03513d8884e3U,
  0x3dc87b8ebe65f982U, 0x3d1123dabe8a11b6U, 0xbe953ffc3e8eea67U, 0x3d5e428fbe5b1e53U,
  0xbe4ae5aa3e222c21U, 0x3e2b3e153e28e50dU, 0x3ebc44d6bb1207a0U, 0xbe53ec40bd842330U,
  0xbec90e9a3dd8b0e2U, 0xbd7ea936bdf7d3a6U, 0x3ee26c50bef59311U, 0x3de1303e3d32fd8eU,
  0x3e8c1f633e9ae337U, 0xbd7de85c3ed95a59U, 0xbe62063e3e659996U, 0x3d636c003e686342U,
  0xbe5f257c3ee1b44aU, 0xbecf8d043cc06fbcU, 0x3e8fce24bcf6a207U, 0xbdeab8893e90ed02U,
  0xbe3363a1beabf835U, 0xbe1b1eb23da9189cU, 0x3e9609853b83806fU, 0xbe0d2c573d065071U,
  0xbe654a8a3ea1dfe9U, 0xbe59de0ebd956840U, 0x3e500cc8bda66e06U, 0xbeb07dcbbd71e7daU,
  0xbe18b5df3def98b7U, 0x3e56b635be9f1d12U, 0x3e5b4f7bbe816832U, 0xbdce5a003dd5f34cU,
  0x3e17d3653e40a250U, 0x3e8a4ba6be0b0f94U, 0x3c55c5a43e8f7938U, 0x3e4a828cbc085e36U,
  0xbe89a2c53daa58e9U, 0xbd828b5f3e260de4U, 0x3ea2c335bd8adaa1U, 0x3dfe722e3e90e84bU,
  0xbe01d167bd40be4fU, 0xbea719abbe12ccfeU, 0x3cf781b93e044de8U, 0x3cacdb07bc9d72cfU,
  0x3c520917beb31efcU, 0x3e6f74103e1cb93bU, 0xbea51bf53eb78f15U, 0xbe22d922be3796e8U,
  0xbea6536f3dbe92a9U, 0xbe8c5ee33ec048baU, 0xbd99ce4bbdb3313cU, 0xbe92802e3ebe6686U,
  0x3de176b5be6a6d94U, 0xbdebce1bbe4f447aU, 0xbe17e1b2be8bb05eU, 0x3e75ebd03e9e26beU,
  0xbe9160363d6a9a35U, 0x3c67578bbe8b35d4U, 0xbe848a12be374e45U, 0xbe55364c3e46dcd3U,
  0xbec4b059be80c3b9U, 0x3d40ac9abe6d8ab3U, 0x3e98d547bed53591U, 0x3e1db433bda1f289U,
  0x3af3784abe147166U, 0xbe2570ff3db77ef0U, 0xbe4628ab3eb8f870U, 0xbe5788d5be76a974U,
  0xbe9098bcbc31f5e6U, 0x3d4e41083e1e30d0U, 0xbe71b6a23e9b6479U, 0xbdb8fb66bbd701b1U,
  0x3e6631bb3eaba87eU, 0xbdd4f6913d539579U, 0x3deaac783d6e452dU, 0xbdc6ebb53dbb8644U,
  0xbd19be47be25fa1dU, 0x3ce53bd9be9c625eU, 0x3e98cb0fbe5cfaaaU, 0x3d9bc9d3bd5df0e5U,
  0xbd9adfe8be208953U, 0xbe1c65053e6dfd15U, 0xbe86000b3e71346cU, 0x3bb003f7be158d44U,
  0xbe62c2883ee55e5cU, 0xbddcf3bbbd3a0181U, 0x3e4fc0893d7e13aaU, 0xbecd1571beb402bdU,
  0x3e10ef0e3e4bd982U, 0x3e0761063cfea1eeU, 0x3e5ee27f3e8564c2U, 0x3e8d4d85be64a526U,
  0xbebf5435bd086e00U, 0x3e1f473d3d20818fU, 0x3dc02458beba86b4U, 0xbedbf6c7bcfc7b80U,
  0xbd9d89ca3e08f26dU, 0x3daf50673de08695U, 0x3e867da93e9d5295U, 0x3e1f38a6be75f285U,
  0xbe96a8df3e9aeed7U, 0xbe9f3d30bca0cddeU, 0xbea056643dea268dU, 0xbe3efc0bbe20191eU,
  0x3e4af7acbebf37efU, 0xbc9969013e185ce2U, 0x3e5f0e5cbd47d6eaU, 0x3e1d5b54be6b9d0fU,
  0x3ea38466be2b7fcbU, 0x3e3e94c7bdcaa6deU, 0xbe21c9bd3e5a62efU, 0x3eb88349bd346ac7U,
  0xbe0962623c959a4bU, 0xbe8dee91bd01bbfdU, 0xbe2220e2be9116d7U, 0xbeb328793e644fcfU,
  0xbdce2347bea48894U, 0x3af7964c3e4d8efeU, 0x3daba189bd41c654U, 0x3d163ce83e4d3cbbU,
  0x3e748e203eca9cdcU, 0x3e836f90be3cbeb8U, 0xbe3dbff8be2ecfcdU, 0x3c033426be79bdc2U,
  0xbeb56b13be84467bU, 0xbc792bbcbee0706dU, 0x3e14403dbefa87ccU, 0xbd4c439a3d9fc03eU,
  0x3dee2ec4bdf7fa4fU, 0x3d4589e8be90a734U, 0xbd94d9783ef190bfU, 0xbdf9e767bef16ed2U,
  0x3e0492e23e240702U, 0x3eaea9a0beb8020cU, 0x3e168d013e6a521eU, 0xbe5084a43e07f1a0U,
  0x3ea9294f3ea41e9aU, 0x3cba1350be7c07dfU, 0xbe606d2c3e0ee9deU, 0xbeabfe3abecf45adU,
  0xbecbaddabe18cccaU, 0xbd95c41bbf0aef1dU, 0x3c911588bf09e723U, 0xbdd67839bbf03037U,
  0xbe2c17a63d9f6e61U, 0xbe2ae3a5be92447bU, 0xbeac7c653eedde60U, 0x3c3d88aebc86a190U,
  0x3ebc55393e835121U, 0x3d8de9aebd61e332U, 0x3eb956c53edcca4bU, 0xbe4e80923dc0093aU,
  0xbe4610993e792572U, 0xbccf001cbd72ca79U, 0x3e69f172bdd3610aU, 0xbe13370dbd4e04caU,
  0x3dc05779be022134U, 0xbe098c1dbc931c59U, 0xbdbd203fbd9b39daU, 0xbe2e98ed3e13c90bU,
  0x3c61b652be34d836U, 0x3d37a05b3e565c16U, 0xbdc1b9ac3e741fbfU, 0xbe206046be8d59e2U,
  0xbe7c7aad3df8b6d6U, 0xbdb8bf29be8bab94U, 0xbdc276533e21e2ccU, 0xbde00d9ebd2e92a2U,
  0x3e928af7bee70e99U, 0xbe9070a83e5a02d6U, 0xbe87c3d2be02f818U, 0x3efb863d3f04bdefU,
  0x3f0e1eacbec2285eU, 0x3f01ed013e5f3e89U, 0xbf216c3f3f239013U, 0x3e5a2c86bc8efd3cU,
  0xbe36bf56be2b3cffU, 0xbcea4ffa3ee6b584U, 0xbe8c2ceabe012e7fU, 0xbc9cadf5beb95692U,
  0xbb7ad31cbeb757a0U, 0xbe39cbe43cea73b5U, 0xbf00519ebf01cbe4U, 0x3ec8772dbe47fe5aU,
  0xbe78b4c1bec09c45U, 0xbe284f47bda5e2edU, 0xbda658473c230c35U, 0x3e7eba4e3d99cb31U,
  0xbe2141aa3cff27d0U, 0xbda63bf43e30b7ccU, 0xbecfc8fb3e66602aU, 0x3e69518ebe658db8U,
  0xbd297d9cbda75f10U, 0xbcb4e6023da385a9U, 0x3e3b7896bedba30eU, 0xbeb15d013e36e009U,
  0xbe48a346bef12013U, 0xbe22e802be077baeU, 0xbe891b16be9e4835U, 0x3e5bf13abdd09440U,
  0xbe95b8973e86667bU, 0x3e95586cbe1b51caU, 0x3d63966ebe930ed8U, 0xbe600463be8820e1U,
  0x3e84c7dabe8d8e34U, 0x3cd2a67cbcb3877aU, 0xbe5e4530be679516U, 0xbe55acce3e7eecd5U,
  0xbcae6272bb721990U, 0xbdb6761a3e3d2630U, 0xbe67e954bd136334U, 0x3e93e31dbe86bc92U,
  0x3e5aca8fbe27b3aeU, 0x3e6c39673e3af0efU, 0xbe9bfbdebe9e4c0fU, 0xbe7cbbfb3dc475e5U,
  0x3e065ba7bd3deed7U, 0x3d571e47bdb18797U, 0xbba60bfa3c85a25bU, 0x3ce119d7bd5e5755U,
  0xbdb72f973ebcc851U, 0xbd377204bb8a340cU, 0x3d8a959bbdd07543U, 0x3ccfe4703c5e835aU,
  0xbccc28ff3c82e5d1U, 0x3e32071bbd348d6cU, 0x3d162afebd4aa496U, 0x3cd898fd3d007045U,
  0x3d5826c13cdd092cU, 0xbd82b118bd88c4d4U, 0x3e30eebe3d13de26U, 0x3d916f533d30ebd5U,
  0x3efb9296be9b6e14U, 0x3e4433c5beaaa589U, 0xbead1865b8dfa7e5U, 0x3eeb7571bdbafaffU,
  0xbca0cdc5bd99daa9U, 0xbf322dd7bee46c84U, 0x3eb79c7fbf07c8a7U, 0xbed096a73f1488fcU,
  0xbec47c10bf221e33U, 0x3ebc0be6bd2e58caU, 0x3eaa5bc8bdb344f9U, 0x3e9e42713e4b97b0U,
  0x3d238ff73f3fc62dU, 0xbf097b75be69af5eU, 0xbdd81a5b3daa6b00U, 0x3e4794f13eacc242U,
  0x3d825daaU,
};


ai_handle g_sin_weights_table[1 + 2] = {
  AI_HANDLE_PTR(AI_MAGIC_MARKER),
  AI_HANDLE_PTR(s_sin_weights_array_u64),
  AI_HANDLE_PTR(AI_MAGIC_MARKER),
};

