/**
  ******************************************************************************
  * @file    network_data.c
  * @author  AST Embedded Analytics Research Platform
  * @date    2026-04-30T09:26:14+0000
  * @brief   AI Tool Automatic Code Generator for Embedded NN computing
  ******************************************************************************
  * Copyright (c) 2026 STMicroelectronics.
  * All rights reserved.
  *
  * This software is licensed under terms that can be found in the LICENSE file
  * in the root directory of this software component.
  * If no LICENSE file comes with this software, it is provided AS-IS.
  ******************************************************************************
  */

#include "network_data.h"
STAI_ALIGNED(8)
const uint64_t g_network_weights_array[77162] = {
  0x2020202020202020U, 0x2020202020202020U, 0x2020202020202020U, 0x2020202020202020U,
  0x2020202020202020U, 0x2020202020202020U, 0x2020202020202020U, 0x2020202020202020U,
  0x2020202020202020U, 0x2020202020202020U, 0x2020202020202020U, 0x2020202020202020U,
  0x2020202020202020U, 0x2020202020202020U, 0x2020202020202020U, 0x2020202020202020U,
  0x2020202020202020U, 0x2020202020202020U, 0x2020202020202020U, 0x2020202020202020U,
  0x2020202020202020U, 0x2020202020202020U, 0x2020202020202020U, 0x2020202020202020U,
  0x2020202020202020U, 0x2020202020202020U, 0x2020202020202020U, 0x2020202020202020U,
  0x2020202020202020U, 0x2020202020202020U, 0x2020202020202020U, 0x2020202020202020U,
  0x2020202020202020U, 0x2020202020202020U, 0x2020202020202020U, 0x2020202020202020U,
  0x2020202020202020U, 0x2020202020202020U, 0x2020202020202020U, 0x2020202020202020U,
  0x2020202020202020U, 0x2020202020202020U, 0x2020202020202020U, 0x2020202020202020U,
  0x2020202020202020U, 0x2020202020202020U, 0x2020202020202020U, 0x2020202020202020U,
  0x2020202020202020U, 0x2020202020202020U, 0x2020202020202020U, 0x2020202020202020U,
  0x2020202020202020U, 0x2020202020202020U, 0x2020202020202020U, 0x2020202020202020U,
  0x2020202020202020U, 0x2020202020202020U, 0x2020202020202020U, 0x2020202020202020U,
  0x2020202020202020U, 0x2020202020202020U, 0x2020202020202020U, 0x2020202020202020U,
  0x2020202020202020U, 0x2020202020202020U, 0x2020202020202020U, 0x2020202020202020U,
  0x2020202020202020U, 0x2020202020202020U, 0x2020202020202020U, 0x2020202020202020U,
  0x4040404040404040U, 0x4040404040404040U, 0x4040404040404040U, 0x4040404040404040U,
  0x4040404040404040U, 0x4040404040404040U, 0x4040404040404040U, 0x4040404040404040U,
  0x4040404040404040U, 0x4040404040404040U, 0x4040404040404040U, 0x4040404040404040U,
  0x4040404040404040U, 0x4040404040404040U, 0x4040404040404040U, 0x4040404040404040U,
  0x4040404040404040U, 0x4040404040404040U, 0x7f7f7f7f7f7f7f7fU, 0x7f7f7f7f7f7f7f7fU,
  0x7f7f7f7f7f7f7f7fU, 0x7f7f7f7f7f7f7f7fU, 0x7f7f7f7f7fU, 0x313030e03080303U,
  0x3290323031e0318U, 0x33e03390333032eU, 0x354034e03490344U, 0x3690364035f0359U,
  0x37f037a0374036fU, 0x813080e08080803U, 0x8290823081e0818U, 0x83e08390833082eU,
  0x854084e08490844U, 0x8690864085f0859U, 0x87f087a0874086fU, 0xe130e0e0e080e03U,
  0xe290e230e1e0e18U, 0xe3e0e390e330e2eU, 0xe540e4e0e490e44U, 0xe690e640e5f0e59U,
  0xe7f0e7a0e740e6fU, 0x1313130e13081303U, 0x13291323131e1318U, 0x133e13391333132eU,
  0x1354134e13491344U, 0x13691364135f1359U, 0x137f137a1374136fU, 0x1813180e18081803U,
  0x18291823181e1818U, 0x183e18391833182eU, 0x1854184e18491844U, 0x18691864185f1859U,
  0x187f187a1874186fU, 0x1e131e0e1e081e03U, 0x1e291e231e1e1e18U, 0x1e3e1e391e331e2eU,
  0x1e541e4e1e491e44U, 0x1e691e641e5f1e59U, 0x1e7f1e7a1e741e6fU, 0x2313230e23082303U,
  0x23292323231e2318U, 0x233e23392333232eU, 0x2354234e23492344U, 0x23692364235f2359U,
  0x237f237a2374236fU, 0x2913290e29082903U, 0x29292923291e2918U, 0x293e29392933292eU,
  0x2954294e29492944U, 0x29692964295f2959U, 0x297f297a2974296fU, 0x2e132e0e2e082e03U,
  0x2e292e232e1e2e18U, 0x2e3e2e392e332e2eU, 0x2e542e4e2e492e44U, 0x2e692e642e5f2e59U,
  0x2e7f2e7a2e742e6fU, 0x3313330e33083303U, 0x33293323331e3318U, 0x333e33393333332eU,
  0x3354334e33493344U, 0x33693364335f3359U, 0x337f337a3374336fU, 0x3913390e39083903U,
  0x39293923391e3918U, 0x393e39393933392eU, 0x3954394e39493944U, 0x39693964395f3959U,
  0x397f397a3974396fU, 0x3e133e0e3e083e03U, 0x3e293e233e1e3e18U, 0x3e3e3e393e333e2eU,
  0x3e543e4e3e493e44U, 0x3e693e643e5f3e59U, 0x3e7f3e7a3e743e6fU, 0x4413440e44084403U,
  0x44294423441e4418U, 0x443e44394433442eU, 0x4454444e44494444U, 0x44694464445f4459U,
  0x447f447a4474446fU, 0x4913490e49084903U, 0x49294923491e4918U, 0x493e49394933492eU,
  0x4954494e49494944U, 0x49694964495f4959U, 0x497f497a4974496fU, 0x4e134e0e4e084e03U,
  0x4e294e234e1e4e18U, 0x4e3e4e394e334e2eU, 0x4e544e4e4e494e44U, 0x4e694e644e5f4e59U,
  0x4e7f4e7a4e744e6fU, 0x5413540e54085403U, 0x54295423541e5418U, 0x543e54395433542eU,
  0x5454544e54495444U, 0x54695464545f5459U, 0x547f547a5474546fU, 0x5913590e59085903U,
  0x59295923591e5918U, 0x593e59395933592eU, 0x5954594e59495944U, 0x59695964595f5959U,
  0x597f597a5974596fU, 0x5f135f0e5f085f03U, 0x5f295f235f1e5f18U, 0x5f3e5f395f335f2eU,
  0x5f545f4e5f495f44U, 0x5f695f645f5f5f59U, 0x5f7f5f7a5f745f6fU, 0x6413640e64086403U,
  0x64296423641e6418U, 0x643e64396433642eU, 0x6454644e64496444U, 0x64696464645f6459U,
  0x647f647a6474646fU, 0x6913690e69086903U, 0x69296923691e6918U, 0x693e69396933692eU,
  0x6954694e69496944U, 0x69696964695f6959U, 0x697f697a6974696fU, 0x6f136f0e6f086f03U,
  0x6f296f236f1e6f18U, 0x6f3e6f396f336f2eU, 0x6f546f4e6f496f44U, 0x6f696f646f5f6f59U,
  0x6f7f6f7a6f746f6fU, 0x7413740e74087403U, 0x74297423741e7418U, 0x743e74397433742eU,
  0x7454744e74497444U, 0x74697464745f7459U, 0x747f747a7474746fU, 0x7a137a0e7a087a03U,
  0x7a297a237a1e7a18U, 0x7a3e7a397a337a2eU, 0x7a547a4e7a497a44U, 0x7a697a647a5f7a59U,
  0x7a7f7a7a7a747a6fU, 0x7f137f0e7f087f03U, 0x7f297f237f1e7f18U, 0x7f3e7f397f337f2eU,
  0x7f547f4e7f497f44U, 0x7f697f647f5f7f59U, 0x7f7f7f7a7f747f6fU, 0x313030e03080303U,
  0x3290323031e0318U, 0x33e03390333032eU, 0x813080e08080803U, 0x8290823081e0818U,
  0x83e08390833082eU, 0xe130e0e0e080e03U, 0xe290e230e1e0e18U, 0xe3e0e390e330e2eU,
  0x1313130e13081303U, 0x13291323131e1318U, 0x133e13391333132eU, 0x1813180e18081803U,
  0x18291823181e1818U, 0x183e18391833182eU, 0x1e131e0e1e081e03U, 0x1e291e231e1e1e18U,
  0x1e3e1e391e331e2eU, 0x2313230e23082303U, 0x23292323231e2318U, 0x233e23392333232eU,
  0x2913290e29082903U, 0x29292923291e2918U, 0x293e29392933292eU, 0x2e132e0e2e082e03U,
  0x2e292e232e1e2e18U, 0x2e3e2e392e332e2eU, 0x3313330e33083303U, 0x33293323331e3318U,
  0x333e33393333332eU, 0x3913390e39083903U, 0x39293923391e3918U, 0x393e39393933392eU,
  0x3e133e0e3e083e03U, 0x3e293e233e1e3e18U, 0x3e3e3e393e333e2eU, 0x313030e03080303U,
  0x8080803031e0318U, 0x81e08180813080eU, 0xe130e0e0e080e03U, 0x130813030e1e0e18U,
  0x131e13181313130eU, 0x1813180e18081803U, 0x1e081e03181e1818U, 0x1e1e1e181e131e0eU,
  0x313030e03080303U, 0x3290323031e0318U, 0x33e03390333032eU, 0x354034e03490344U,
  0x3690364035f0359U, 0x37f037a0374036fU, 0x813080e08080803U, 0x8290823081e0818U,
  0x83e08390833082eU, 0x854084e08490844U, 0x8690864085f0859U, 0x87f087a0874086fU,
  0xe130e0e0e080e03U, 0xe290e230e1e0e18U, 0xe3e0e390e330e2eU, 0xe540e4e0e490e44U,
  0xe690e640e5f0e59U, 0xe7f0e7a0e740e6fU, 0x1313130e13081303U, 0x13291323131e1318U,
  0x133e13391333132eU, 0x1354134e13491344U, 0x13691364135f1359U, 0x137f137a1374136fU,
  0x1813180e18081803U, 0x18291823181e1818U, 0x183e18391833182eU, 0x1854184e18491844U,
  0x18691864185f1859U, 0x187f187a1874186fU, 0x1e131e0e1e081e03U, 0x1e291e231e1e1e18U,
  0x1e3e1e391e331e2eU, 0x1e541e4e1e491e44U, 0x1e691e641e5f1e59U, 0x1e7f1e7a1e741e6fU,
  0x2313230e23082303U, 0x23292323231e2318U, 0x233e23392333232eU, 0x2354234e23492344U,
  0x23692364235f2359U, 0x237f237a2374236fU, 0x2913290e29082903U, 0x29292923291e2918U,
  0x293e29392933292eU, 0x2954294e29492944U, 0x29692964295f2959U, 0x297f297a2974296fU,
  0x2e132e0e2e082e03U, 0x2e292e232e1e2e18U, 0x2e3e2e392e332e2eU, 0x2e542e4e2e492e44U,
  0x2e692e642e5f2e59U, 0x2e7f2e7a2e742e6fU, 0x3313330e33083303U, 0x33293323331e3318U,
  0x333e33393333332eU, 0x3354334e33493344U, 0x33693364335f3359U, 0x337f337a3374336fU,
  0x3913390e39083903U, 0x39293923391e3918U, 0x393e39393933392eU, 0x3954394e39493944U,
  0x39693964395f3959U, 0x397f397a3974396fU, 0x3e133e0e3e083e03U, 0x3e293e233e1e3e18U,
  0x3e3e3e393e333e2eU, 0x3e543e4e3e493e44U, 0x3e693e643e5f3e59U, 0x3e7f3e7a3e743e6fU,
  0x4413440e44084403U, 0x44294423441e4418U, 0x443e44394433442eU, 0x4454444e44494444U,
  0x44694464445f4459U, 0x447f447a4474446fU, 0x4913490e49084903U, 0x49294923491e4918U,
  0x493e49394933492eU, 0x4954494e49494944U, 0x49694964495f4959U, 0x497f497a4974496fU,
  0x4e134e0e4e084e03U, 0x4e294e234e1e4e18U, 0x4e3e4e394e334e2eU, 0x4e544e4e4e494e44U,
  0x4e694e644e5f4e59U, 0x4e7f4e7a4e744e6fU, 0x5413540e54085403U, 0x54295423541e5418U,
  0x543e54395433542eU, 0x5454544e54495444U, 0x54695464545f5459U, 0x547f547a5474546fU,
  0x5913590e59085903U, 0x59295923591e5918U, 0x593e59395933592eU, 0x5954594e59495944U,
  0x59695964595f5959U, 0x597f597a5974596fU, 0x5f135f0e5f085f03U, 0x5f295f235f1e5f18U,
  0x5f3e5f395f335f2eU, 0x5f545f4e5f495f44U, 0x5f695f645f5f5f59U, 0x5f7f5f7a5f745f6fU,
  0x6413640e64086403U, 0x64296423641e6418U, 0x643e64396433642eU, 0x6454644e64496444U,
  0x64696464645f6459U, 0x647f647a6474646fU, 0x6913690e69086903U, 0x69296923691e6918U,
  0x693e69396933692eU, 0x6954694e69496944U, 0x69696964695f6959U, 0x697f697a6974696fU,
  0x6f136f0e6f086f03U, 0x6f296f236f1e6f18U, 0x6f3e6f396f336f2eU, 0x6f546f4e6f496f44U,
  0x6f696f646f5f6f59U, 0x6f7f6f7a6f746f6fU, 0x7413740e74087403U, 0x74297423741e7418U,
  0x743e74397433742eU, 0x7454744e74497444U, 0x74697464745f7459U, 0x747f747a7474746fU,
  0x7a137a0e7a087a03U, 0x7a297a237a1e7a18U, 0x7a3e7a397a337a2eU, 0x7a547a4e7a497a44U,
  0x7a697a647a5f7a59U, 0x7a7f7a7a7a747a6fU, 0x7f137f0e7f087f03U, 0x7f297f237f1e7f18U,
  0x7f3e7f397f337f2eU, 0x7f547f4e7f497f44U, 0x7f697f647f5f7f59U, 0x7f7f7f7a7f747f6fU,
  0x313030e03080303U, 0x3290323031e0318U, 0x33e03390333032eU, 0x813080e08080803U,
  0x8290823081e0818U, 0x83e08390833082eU, 0xe130e0e0e080e03U, 0xe290e230e1e0e18U,
  0xe3e0e390e330e2eU, 0x1313130e13081303U, 0x13291323131e1318U, 0x133e13391333132eU,
  0x1813180e18081803U, 0x18291823181e1818U, 0x183e18391833182eU, 0x1e131e0e1e081e03U,
  0x1e291e231e1e1e18U, 0x1e3e1e391e331e2eU, 0x2313230e23082303U, 0x23292323231e2318U,
  0x233e23392333232eU, 0x2913290e29082903U, 0x29292923291e2918U, 0x293e29392933292eU,
  0x2e132e0e2e082e03U, 0x2e292e232e1e2e18U, 0x2e3e2e392e332e2eU, 0x3313330e33083303U,
  0x33293323331e3318U, 0x333e33393333332eU, 0x3913390e39083903U, 0x39293923391e3918U,
  0x393e39393933392eU, 0x3e133e0e3e083e03U, 0x3e293e233e1e3e18U, 0x3e3e3e393e333e2eU,
  0x313030e03080303U, 0x8080803031e0318U, 0x81e08180813080eU, 0xe130e0e0e080e03U,
  0x130813030e1e0e18U, 0x131e13181313130eU, 0x1813180e18081803U, 0x1e081e03181e1818U,
  0x1e1e1e181e131e0eU, 0x67a9ed7f8efb25e3U, 0x1b9281d6303c10f3U, 0x60812218e5013a45U,
  0x622b02daac50951aU, 0x140a630dec819268U, 0xa6abdfc881dc2f21U, 0x230a4323fa7f20ddU,
  0x17e0cc51bc811638U, 0x9c373c814261b312U, 0xfffffd66fffffe35U, 0x7d43fffffe37U,
  0xffffffebfffffd55U, 0x128100004332U, 0x3f700f4e8faf6ffU, 0xe0f111e9d6fd01e5U,
  0xf315e515eff5d90aU, 0xeef029060e010102U, 0x42fa0e19d5e7f310U, 0x387face1f9f9d1b2U,
  0xf12414090703ff01U, 0x59fb0f43d6fef51cU, 0x504ee3c3d702e3e5U, 0x7fe09fc00f303f9U,
  0xeefe0efff2e700dcU, 0xfbf3030ef1f908f8U, 0xde11ede60590f3caU, 0xeffffb05ee82f281U,
  0x1bf80c06e80d0bc1U, 0xf909dff926dafaf9U, 0xfbf4f60b0dd309abU, 0x1eec0b11050c17faU,
  0xdf48f8187dfef60cU, 0xd3c743e8c2e8130dU, 0xcae213f1b8e6f3f2U, 0xbc72c8d96009fefeU,
  0xad8166efe3f6e306U, 0x99d0c22a7b7eaaaU, 0x2055feac7e22e92cU, 0x90c2d25f90ad909U,
  0xd3d0f22da8fb06e1U, 0xc0f1bfde808f001U, 0xfdff2adacd01ec03U, 0xef7220ee70310feU,
  0xff091d08ebf4ef00U, 0xdbec3483bb0ecffaU, 0xecce4104c10e192eU, 0xec11dbf422fdf50cU,
  0xf1d502810560ba46U, 0x11c616edea27fa59U, 0x29e42ddadf014f2U, 0xfe9439ecb1f41ae3U,
  0x2cca1c15f90d15efU, 0xfcb825b72f3ee820U, 0xf89752d4124b0a63U, 0x10c0271f2b371157U,
  0xe5bf190229130ef4U, 0xdf81453a0ec319d6U, 0xf6a7262308e737c1U, 0x14e81b00df090402U,
  0x23bf4f2e5fdec15U, 0x5e91d19d20e0cfaU, 0x75f81e2bc908fc19U, 0x307fcdb4eaf2bdd3U,
  0xede02b0100f80cdbU, 0x52efcb26d902f014U, 0x6dc5b7f006bbe4U, 0xe0f908ef07d4fdd8U,
  0x1f25fa06f00ef9U, 0x271c211904030ffaU, 0xf1beee235fef406U, 0xf9da7ffccef822f4U,
  0x5e62f21caef1f03U, 0x211c3cffbf9e9f5U, 0x9d155fade1e0c1cU, 0x47d8ceffd721fd4fU,
  0x2b3798b90f35c61eU, 0xe309fefb191d0911U, 0xdbfa071b31060a23U, 0x801010a0e040c1bU,
  0x1d0e2116fbe130eaU, 0xe0352134449a2a81U, 0xe607111443ae21a7U, 0x2a1a5011d6d91cdcU,
  0x2d014c0b07c325a6U, 0xfaf21b0d1ce91dc8U, 0xefe3f90dd708fa01U, 0x2ef0e2e5fa17f505U,
  0xcbed05151def0501U, 0xcaee1711010a04ecU, 0x50f9c4d40a0cf529U, 0xaef131312fa21cfaU,
  0xdaef0405e9ee0fd2U, 0x7f18ace21c02e803U, 0xc102250327a716fdU, 0x931e7e402f5e7faU,
  0xac1304081ffdf0f1U, 0xdb81280fc607131aU, 0x61fcef0e4d1dcfbU, 0xa02eecbbf60bfec6U,
  0xe5ba4e460912f34fU, 0xb2e90ef6f90aeef7U, 0x4b0d03daeac6d725U, 0x5f41b222ff0c04caU,
  0xf0cbd40de1de0dfdU, 0xcb01f30730d7130bU, 0xf8d5fc0ffc0101d9U, 0xf1bd0117e8a716c7U,
  0x87f85c0e29a42dacU, 0xdabd2b1d0fcb2081U, 0xfd8cbd2120ddb02U, 0xa8ed0fb53c07ea41U,
  0x23f0d8bd2333f20cU, 0xc03f709f7070002U, 0xf070e040f15020cU, 0xfdecf9eef608fd10U,
  0xfaf20814fa0a050eU, 0xe6ef1d060cf51205U, 0xd800ecf6edf8e2U, 0xd8030d08fde909edU,
  0xcd0111f517a0fad6U, 0xf3e7efe9ec97e981U, 0xdda6f305a5f2faefU, 0xdbd1da02dfe705e7U,
  0x3e3eaf7e3e7f3e1U, 0xef17daf6191ef209U, 0xc35ddef4816fc0fU, 0x3b41dec84908f505U,
  0xf6553f193d0b0cc5U, 0xe57a3f167fca0c83U, 0x4c6e3ff577bc06f0U, 0x1b3815f724d708f0U,
  0x563ff2fe46dd08dcU, 0x2bfc371564040ce4U, 0x93c619fafbd1fbd6U, 0xd9913fade843181U,
  0xb1ab794ee4ad4497U, 0x9ae1f6000528ee17U, 0xda9768fec9301320U, 0xc78d742e99d42f4cU,
  0xf7e10d27db0304ffU, 0x13dbf212ceef0019U, 0xedf01ad6e71f0133U, 0xc9fe0e2703e1e9ebU,
  0x1424d7f1dcc4b7f1U, 0xdfa3d81e21ac01bU, 0xb91bf30e21dee7f5U, 0x33d88df1dcaa8eeU,
  0xf5fe0b9247279507U, 0xf9f6000313f9fffcU, 0x19f1f3bbee0dd40aU, 0x1b01fbbede05e10aU,
  0xf9f0f6fbed020503U, 0xf102cd81e708ae0dU, 0xfefce487dffeb201U, 0x16020ffb020c0f07U,
  0xe81be29a1913c007U, 0x626f6ad1e13c710U, 0x9a8fffffa5cU, 0x1f3000001539U,
  0xfffffd08000024d7U, 0x1b300000cceU, 0x680000008a4U, 0xf1500001ce6U,
  0x291effffe62dU, 0x5cb00000d23U, 0x6d62b3861c1328dcU, 0xe1d05f22b07fb30eU,
  0x1996e27faeaed2e8U, 0xe3e1bc516fe8f325U, 0xffff0a0a1613f017U, 0x7f401df02d16f0fdU,
  0x4300316ba4f4e5d1U, 0xc1816e07f9a6d2d8U, 0xd581b9e676ff2b37U, 0xe3e24ece71c1de1U,
  0x3763eee7b881405fU, 0x975af4efd2453e4U, 0xb8b148af157fcbf9U, 0xae4e21f22041708U,
  0xe71316aacf02db27U, 0x828e2ed1812e78e6U, 0x2e1d18ef17207940U, 0xdcfa47bf7fb61ed9U,
  0x250601f6eafe7fe4U, 0xedfae348422bdb0fU, 0xff417fb4b3b22e3eU, 0x1300a0f1cc05222aU,
  0x8161c3e11092cdf1U, 0x100cba2faca8e026U, 0xf6f7fd04f8ff1911U, 0xadcce162b36f381U,
  0x7f82fae48266b967U, 0xb7afbc49bf4f0d14U, 0xee59017f3f15dfe1U, 0xa8c03913c214ebebU,
  0xc5e60a277f30d724U, 0x2326d8daefd60c12U, 0xc7bfffff639U, 0xbfbfffff1efU,
  0xfffffe8cfffffff8U, 0x145d000005c2U, 0xfffff5e0fffff7b7U, 0x1d5b00000c8cU,
  0x1160000002b0U, 0x308fffff8e0U, 0xf4e70bdb00000008U, 0xff1f13e125f8e8e4U,
  0xda0c09311009f7dfU, 0xcaf8fa0bdff3f2f5U, 0xca18a939bfc4f4ceU, 0xc819da7f4606d1faU,
  0xcbe4fa26c107e9c4U, 0xd7f82c2a425a05c6U, 0xe4028380f0030daU, 0xefc04f3d0f009c5U,
  0x185908c2e8dc13f0U, 0xe8e304fdd6c72df8U, 0xfbf64ae629592e0bU, 0x142e32b905bffa01U,
  0xb6ebeb01cc81cb02U, 0xdc21be21785e2812U, 0xb9b6fb3c0f22fef4U, 0xd963f6ea24d3ce14U,
  0xfdfc060be815dde0U, 0x260509e404f6ef17U, 0xefe60df70c1decfeU, 0x9ffe1e00be5fbffU,
  0x4ad9edba3313e01bU, 0x819f5cc0d1e0017U, 0xedf705061de6f22cU, 0xaaf23c1deae1faddU,
  0xe2f02116811441deU, 0x4fb323af7ead7ffU, 0xfffc1516df01fcf2U, 0xf6d80b10e7faf5e4U,
  0xe6d12425f7e4f8e0U, 0xba031015d3ec20e4U, 0xe7f4401caf1c3ac1U, 0xdf0e7e0d9e11fedU,
  0x5e4a81b032efd21fU, 0x19f8e4bb4853e838U, 0x37121a152cd02037U, 0x700cbd514d9e703U,
  0x1e42f2e51914f90fU, 0x28332212e8b9f209U, 0xe314f1deb7fdec02U, 0xd6df2513d781c903U,
  0xf3fef0f8efa50ce1U, 0x88b7c1be3d4fc815U, 0xdfd0f0ed1954cbc9U, 0x20ecee04fe781ffeU,
  0xcaaa44f22e12d918U, 0x7dec3f1041ee4fcU, 0x50b09e9ff0dd001U, 0xdfc660f34600d228U,
  0x447f8ed70b08af12U, 0xfdb30f1b5e49ca24U, 0xd9cf721007dd17fdU, 0xd4a6da36bfc1e5e8U,
  0xbcf102d9db0afdU, 0xb8e00539e20beee2U, 0xe2eaff3212fa06d3U, 0x331cbcf31b1303cfU,
  0x81ea0eda3d0adb1dU, 0xd7ab3361fd1c2bf2U, 0x2d0410e5e134cde2U, 0xa3130dbba4f92509U,
  0x13f9ffdcb8bc22efU, 0xdde0b23de0218f0U, 0xfae702242ceafd07U, 0x2d9110111f7dee7U,
  0x1f077fefd015e9efU, 0xcbd2dbcfa4b356efU, 0xbc5a9035a0dea0aU, 0x12fc36ff0947bbfbU,
  0xe01ac6cfd6ff0fe6U, 0xfbc6fce438091be9U, 0xa88d0112bfaU, 0x49100000969U,
  0x148a0000008bU, 0x109c000026e2U, 0x2b07d0ea000009b9U, 0xbcd8725dd7b5ff53U,
  0x3ee3e2b4fc25ae4aU, 0x6328af81de59f9cdU, 0x2a5d1aeef356db15U, 0x3f2003f6d9bd3a16U,
  0xdd0aeaf81cbb0ceaU, 0xf631b90fb511c800U, 0xe9021d2db8c85826U, 0xffc6ef1403882404U,
  0xa1902def103eaeefU, 0xccacecffc03afa91U, 0xa7ff32390cb8dae1U, 0xafbdd1150d1ed51eU,
  0xb5af0900e254c5b8U, 0xfa180c72fe81d8d8U, 0x36fdaae4e811f37bU, 0x38c7ec030065c87cU,
  0xdee9dff649c8c0feU, 0x81b34ce2eb16e3fbU, 0xf4e2ffedfd1f0332U, 0xd3f1c41022ff0defU,
  0xb8d036bacfd69afbU, 0xf9fbee03e9272320U, 0xdff2f3f944f5e2c5U, 0x18bf1cc8f9e3e603U,
  0xfaff14c3471a2115U, 0xfd2017ed08451610U, 0xfbe22d153339f4fbU, 0x28ebf83403fad8e1U,
  0xe2d0eee004bbd937U, 0xdfd3d23f5f1f103U, 0xfde1125624c500d9U, 0x41c52e1de3edeac5U,
  0x1fe1e31324060d1cU, 0xdf3440ce4c8492cU, 0xecf50ee881eb1e11U, 0x1f00bbfa2cf60fedU,
  0xd937ebf00e16c801U, 0x190a0710e3160eecU, 0x826c63807c74603U, 0x36f3e9f30105b21fU,
  0xe90b1acb8161f517U, 0xe812f01209f61af6U, 0xeafa130115fede02U, 0xe43a0d2bb8414306U,
  0xe5fa4ffee2ddc50dU, 0xd3ef5a61f8ef09e5U, 0xc9fec12a50e637fcU, 0xc18d87f1c1d900bU,
  0xd3c1eb5d383bf700U, 0xd9f0fef88d3b15c6U, 0x2c18a30ebd16c3e9U, 0xe1d4bd0523f4a50dU,
  0xd32df9025f1d30f3U, 0x443b7fdee6f94714U, 0x3e709bde52d0a34U, 0xcce9280022f6e012U,
  0x2fe8eef031bcff02U, 0xc027b0ae7c19e3c1U, 0xddba0acfb627cff5U, 0xfd5e9ac2f895b8daU,
  0xc338feb438fec4d3U, 0x25fdf706e7cab1f5U, 0x50b1f1d70ed7ef11U, 0x380b18bcfa040a0cU,
  0xd32ff0fd2f16b8c6U, 0xdf6fd9c73e1a2cc9U, 0xd5e8d907ecc87fabU, 0x1220eaecf817c71fU,
  0xf5351fcaf5f0d901U, 0xdea0a0610d216dcU, 0x18dfe7059f1cU, 0x15980000328dU,
  0x1b0fffffe14U, 0x3065fffff744U, 0xbe2ee9fe00003816U, 0x327f0f17c8472c0bU,
  0x11fcafca26d4dee8U, 0x25e52610301bdc54U, 0xb8f5f9001bcde3f2U, 0xb9dc030cd92139cbU,
  0xc457d1e9b9277181U, 0xc7f91e16d5ecd2d4U, 0xbcc248e3edd381b5U, 0x8a63b1c0b0b35e3U,
  0xf8ac3402818199a5U, 0xbaaeba36de0becc3U, 0x9dcf025a40cda26U, 0x301d77f2617f222U,
  0x9df3f5c21e28d412U, 0x100d7fd4306bdbeaU, 0x1eeceee1f025e5c8U, 0xd79af6dbec0c35f4U,
  0x130d2331582ce1efU, 0x461a18f911b548b7U, 0xd0a8b3719a441effU, 0x690d1d117f02e820U,
  0x513a02f305c1a31aU, 0x3b05c6b2426e18e4U, 0x9ad6a8daf57fce33U, 0xd981fda99ce32e64U,
  0xc7529d9c3bcfe3edU, 0x9faa03e3f03c8612U, 0x8d0f36dee52b105cU, 0x3023d9b3e9df0288U,
  0xec8107e3811c260aU, 0x1e33103e30ef51f0U, 0xdcd0bfc946171900U, 0xa951c3a222d32aefU,
  0x4eec16380bf9f3afU, 0xe4a4cb1634e81b2eU, 0xe181e13530708107U, 0xfaeacc872bc6e4b6U,
  0xfbc7ca1aa10d1a2fU, 0xe0e8487f323fdbceU, 0xd112631ef2e33d43U, 0x2bc037aebcb64fddU,
  0x31122840f80ee31aU, 0xd1d0bcf092331e4U, 0xe951dae389e418c9U, 0xba55cbef0c4c077fU,
  0x81d4ff6e153b982fU, 0x7d0eb541f8e5ce34U, 0x8cc66fe1c7U, 0x12d000001906U,
  0x2700001b43U, 0xfffff026000000b7U, 0x238cfffffd7bU, 0x45d00001ab3U,
  0xdd60000030fU, 0xfffffa84fffffd77U, 0xf7f6f207fffff907U, 0x14fd0be0f0fefd14U,
  0xfec1f05fffffbe9U, 0xe0071ee102f41207U, 0x7ef2d0e0de6ddedU, 0xfceb0c0d0102f028U,
  0xf2ed0c2219e7f7f4U, 0x2212f7ce03f519e8U, 0xe2cbf953e6f1040dU, 0x26eaf4061a180df5U,
  0xbfd7c17f08e00a23U, 0x42f4fd3c431f1649U, 0xcfa290c400d162cU, 0x112be8e413f40406U,
  0x2f50241ec07231aU, 0x2a0be80d0d02fef9U, 0xfe04f53403fcf613U, 0x3c0afe1230e62311U,
  0x1a0a0a071201dfe0U, 0xfa07e1e807eaeeffU, 0x22f20ff1ec18e0f9U, 0xe1f8121de4df15U,
  0xce4060be0eff222U, 0x1500e9361f0e1418U, 0x3f9eef1f6f3fe1bU, 0xdfd0ff814dd121dU,
  0xbce00bbfe0c1918U, 0xf110190f08fe4215U, 0x16d2250408e6272cU, 0x11e10241a245616U,
  0x161427f4fc0d3c3aU, 0xec1611d5f5fa19fbU, 0x391b1fe5051f3ef1U, 0xb30d19adfb03fae5U,
  0x181a19c8fe2b42d1U, 0x810b26dce9f3eddeU, 0x262d73fcda4738bdU, 0xecfafbfc01fb160bU,
  0xfee7d05dd117411bU, 0x15fe1b032ae7f9ebU, 0xf404a60217200313U, 0xfdb6f4e6e4f21cf6U,
  0x551c74f8fff5bb0cU, 0xe6f4f7002d0005fcU, 0xdbcb252c9ff7f1cU, 0xfe5010724c013f2U,
  0xceefb4f7032de014U, 0xf6bcf1fedfed01e6U, 0x1f1b501fef0ea2faU, 0xe10ae51b1733f2f6U,
  0x22e8cc31e9143b34U, 0xed1010f0cc51bfbU, 0xbf0bd4120834f61aU, 0xebbeafde2e0e9d6U,
  0xeb0fef1cec1fcbe9U, 0xe6f90cf7e9efecebU, 0xe3edd8e9090411f2U, 0xfa0bfc06f5e7e8e0U,
  0xebe3fdfafaf7fde0U, 0xeee5e21d07cefdf0U, 0x2516d21bfc1dfcf2U, 0xd00fbdcf01308e4U,
  0xf7158f0bf1e204eaU, 0xfbfee7dff7e4c2d8U, 0xe20981eaefdef5e0U, 0xffc7d9f8deb0e2d8U,
  0x39f1300ad2fdfbd7U, 0x1a19d20c4556f418U, 0x3df5fc2d05f038f7U, 0xe524dbe56227d41aU,
  0xcc5da200d320cf5U, 0xf2f4e4c42bf0e1f2U, 0x8f714edeb3704e2U, 0x1feee6f615fa031bU,
  0xe4fc1ef8f8efe922U, 0x3e20929f226f30fU, 0xf5fff339da21fe1bU, 0xfbe0ff1103a2e7eeU,
  0x2d0620d1ee0e1fafU, 0xfedb22f106fd0c07U, 0xaf8fd16ecf2e217U, 0xff08192d06731312U,
  0xfcf5e35ae302f333U, 0xfed00ce8f481b5eeU, 0x381a21ccee510495U, 0xdf17dfe80711f5U,
  0xcedf90f0302f016U, 0x11082a49016926efU, 0xd3f6d954dddf0955U, 0xeaea0de3f597aef0U,
  0xfaded413094ee595U, 0xe5f2e60fff17faeeU, 0x4ed1a19faf60322U, 0xf6dad20f032dfddcU,
  0xedf51cecff0b230eU, 0xfea6cb0630b0fe2aU, 0xdd6eb06ff1343fdU, 0xe4e7081feffe18e9U,
  0x1c91713c8fd1222U, 0xe4d5d5241459d1b3U, 0xecd90f09bd2d4037U, 0xfaabc4361281002eU,
  0xd8ee08f3f8375510U, 0xcaf21214c80029edU, 0xf904261ccf011a09U, 0xd5020019db6022d4U,
  0xe00e10f89cf43b1dU, 0xeac7d201feb74316U, 0xf00ae916fd11200dU, 0x9ddf31fedfdd7e5U,
  0x4fb0e01e9fcfcceU, 0x19ee0ee536e90839U, 0x3704f400f9191b1aU, 0xda0c01f6e01005e3U,
  0xbfffa22fd8ebf419U, 0x16f1e83bd5e281dcU, 0x1dcd912d01a10a9U, 0xf7fc05f849bd3d46U,
  0x49fb17f0062dfa42U, 0xc802ffe8dd4614e0U, 0xcefeca09e9f2291fU, 0xde80015c90da6deU,
  0x9eb1cfe9e1b0bb7U, 0xd201f8e028dd1924U, 0x2ffb1bfff50fed25U, 0xd8fff4ecd744f9ebU,
  0xfdfd18eaeaf5210dU, 0x30ee2d311f800faU, 0xa0b10de19ee0819U, 0x9f7e4e41cfa13fcU,
  0xef0d0de01f052a18U, 0x4f9f01305e404f9U, 0x27f20dde0e122f0aU, 0xbef709c4efe1cbe9U,
  0xf041cd2f2080f04U, 0xc8f406db01c3ebefU, 0x14fe0abede1af4dbU, 0xbbfae8f4edb4e6dfU,
  0xf7e802e39907fcb4U, 0xf6df051805ee1831U, 0x2ee943d3d7eae30dU, 0xd1e0200e122f1f20U,
  0x20e33103e0e5f547U, 0xd50200abf77ff6feU, 0xfc0c3a0ac131f770U, 0xfce3fd08fecbfc09U,
  0xe4fefaf60a11f01bU, 0x12f9002221cb1a10U, 0xc090cfe1712f5daU, 0x26ebf4051af4011cU,
  0x1c083ae607d6f0efU, 0xfbb5f63edbc1ebd4U, 0x110bf2e9ea281be4U, 0x17f2167f2ed0223aU,
  0x270d2c1f0e1be401U, 0x2fff172119fa2b37U, 0xdf02e7fff7e2dbebU, 0x7f2e95bd7b8ccf3U,
  0x703b4efdb4231f5U, 0xbfe325c1ee45427U, 0x4b1c37f826291f3aU, 0x28012ff8fe124735U,
  0x80d12cb0ce83404U, 0x5d10fd8f9333ad5U, 0x1d27193bd7ec1716U, 0xa1a11d10febdcedU,
  0x3fae4c8022162a3U, 0xf92c0514dee0e0feU, 0x291506cc00cb34c8U, 0xdda36e8227332edU,
  0xee48f975f1b14934U, 0x21161ebc34b8d4f8U, 0x319fccb204020afU, 0x180a0129d6b1c0e2U,
  0x3207f0e8f58b0bb5U, 0xef014ed244949feU, 0xe632e262eae53d44U, 0xfc2806ce23ccf809U,
  0xe90b08b3335011afU, 0x20fbf420b4bbe3fbU, 0x2200403d2812fbeU, 0xe609f7df06000ff6U,
  0x151ff4150600ecf8U, 0xfe14091014020d36U, 0x1134f1e319e7de14U, 0x111bfcfb021a08fcU,
  0x2109fee7fdf2f5e1U, 0xe40bed163201fc3aU, 0x2a2034fc160ee517U, 0x2319f3c33c581d4bU,
  0xe1f02f3fbf6b535U, 0x420f8031153dd0eU, 0xeee6ed030718c603U, 0x1f17f5ed33185030U,
  0x21e83ec62509fa2aU, 0x25140b81ee6c6af7U, 0xe3d9eff6f5030922U, 0xd3a13ebfd652ef2U,
  0x1c1ec81f1818f729U, 0x2ad7ee3e2613013bU, 0x37ebf73439181cf0U, 0x1ad2c527eb0bf804U,
  0xd21172c06eadbc0U, 0x7e1acd22167d7d2U, 0xe73abfef0bfaf2d0U, 0x6aa6d37f22d8fc1bU,
  0x8ffbf0a0b001ac9U, 0x38b7cf30da0dc3d7U, 0x1ff3f821fefae992U, 0xebcebe1a094daeb9U,
  0x935c21c0d484897U, 0x4ac7d86e20c7ecfeU, 0x1bd7ab38caf6dee7U, 0x51b4de3b000ba4b1U,
  0x1dc0fd3bece8d0c0U, 0x6e0c905150bafb6U, 0xc7bfda2af8320ba7U, 0x1f0c1710e7f6f9f9U,
  0x97a0d37efd0e0201U, 0x3e490313fafd0afeU, 0xbdbcf94bfbccc6f7U, 0x2a2af204eef826eaU,
  0x19e5d634e70f08ffU, 0x2a10f7f5f426f8e4U, 0xe6d5f952e3fccde4U, 0x2f38f5ee051eeaf8U,
  0x25e44521d3d681d4U, 0x3cf31f0a150005eaU, 0x14341a0012cccfebU, 0x11f4f411daf731f8U,
  0x222258cc0bff04c9U, 0xf9eff5d0f0061bf7U, 0x3a22460bf6f114e7U, 0x7e0290d1b0205f3U,
  0xa6e9c2e034fe2af1U, 0x8113600ecfe0919U, 0xb0e509f607e41cd2U, 0xe93868fec609e2f4U,
  0xb20d2ade16060dc2U, 0x1f2c370fea03fe14U, 0x93c2d4ec070bf2d5U, 0xf1376310cac706ffU,
  0x91dd07f53a1501c4U, 0xf13e63e19cdccef0U, 0x9bfe12f2f504ebb3U, 0xe2c43148d0a06e7U,
  0x96d6e804f3122081U, 0xe71844dabdd214f5U, 0x91d728013ee71cbbU, 0xef274ae8b1f61af4U,
  0x9ad81d04f8e216a8U, 0x1c2c321fb1f306feU, 0xa2e2cd8f6264590U, 0xe6fe0ac514f42116U,
  0x243e29aae20ecafaU, 0xd61938fdd0360211U, 0x116402c40c0fea15U, 0x11ee06d0dddf1d0eU,
  0xcee4fe2522cac2d8U, 0x70bf53944104138U, 0xc9e1c66615e9054bU, 0xb58c9f37f471642U,
  0xf85a28050e44f353U, 0x19f1adeadaa10df0U, 0x23aca731eef808eeU, 0xeb1305321efc1911U,
  0xd9af98790ee31c25U, 0x3936f8cf620e141eU, 0xf8290808c8e7b509U, 0xbfcdd8f18ec50aU,
  0xeafed309e2e0c8f8U, 0x41c0a060e27f10bU, 0x306f7090c00f6feU, 0xdcc2f9dc16bc1224U,
  0xfd09ea190bfff6f3U, 0x1f707e000d2ef00U, 0x11f4df1ef80702e7U, 0x7270fe81858fff0U,
  0x18f3eef1ea2f0924U, 0xd28ee3e3fa81e5feU, 0x1b030210ec0d10f3U, 0x2d11011111e8e316U,
  0xf0e5be2de9f7fbfbU, 0xfc061b0a162efae7U, 0xfef8e2deea440e1dU, 0xe58619f3e78be7f6U,
  0x5ec15fffe1712ecU, 0x10110e0c0f081617U, 0xeef8f91e0c0e230fU, 0x301e80f0521d1f4U,
  0xfebfed49050b0c14U, 0x91dec181615d5d8U, 0xf4cffd26fa28ec25U, 0xfff40135f5fcccdcU,
  0x20ff1e6e904d422U, 0xfbe41de8e5fe44f6U, 0x181114cce30323ccU, 0xc5ec3af2f50d63e2U,
  0xf30a00eaed040db1U, 0xe8f8fd1def234601U, 0x2dd517df0adeecb4U, 0xf6f201f93229ab24U,
  0x1f1514ab36282e47U, 0xfbfa0bf82c1a8138U, 0x51002ecc280e1253U, 0x1cf807eb2b159b52U,
  0xd0da16b943ef1f3eU, 0x85f606d1c7b3f3e0U, 0xd0d01c9ae7ff03edU, 0xd60b1911e38a3a1dU,
  0xffad061ccae024c8U, 0x232af63240447f48U, 0xa8d3130805f11a44U, 0xebf71de83b02be19U,
  0xe8e4ffb0db1420f7U, 0xa201fedafe94e6ebU, 0x3ed71ac1a13e0ecbU, 0xf8251e3404f256f6U,
  0x5b3ec21c1e03ff7U, 0xecff296a763c3650U, 0xbdae044f9270928U, 0x8ccf8c97c5df50aU,
  0x340802e7d870d932U, 0x99ca17e5ac91a1a9U, 0x14e4f9fdab11f7e7U, 0xaf9121e19fe1f3aU,
  0x56d5f3e6f914050bU, 0xf41f30211f3a7f3fU, 0x52dc3cea250c0215U, 0xe121fdccf9114f08U,
  0xf820fada13242205U, 0x11d2cfdfae84919U, 0x1b150cd90f000ce9U, 0xdf1620e5fc1b6d01U,
  0x263712e1150f4d02U, 0xb20418d0edf501e5U, 0x70f08f1142454e3U, 0xaedfff7c9d3bff7U,
  0xe907d3facfd9e6faU, 0xf5cce03aced5aedfU, 0x714c502c6fcdcfaU, 0x3cfe857f4d4a40fU,
  0xea17051ed910d5fdU, 0x1c0edfec11e6ebf2U, 0xcbf90619f80110f3U, 0x3435dff10af3f617U,
  0xdae50d17fb09060cU, 0x1f33f4121203032aU, 0xf80d1dfe060c0425U, 0xb20f4c80cdef204U,
  0xd3bd0e17d00519dfU, 0xc6203cc1de41233U, 0xceb21013e305cefeU, 0x1c5709c735f52931U,
  0x7ee19faedf4c50eU, 0xb0103e8ffede3fcU, 0xf199f613dbf701e5U, 0xd4706fd3309fc2dU,
  0xde81110df406e01dU, 0xa2b06e72bf62239U, 0xffde04f70202dd1bU, 0xe6193d100cfcf50dU,
  0x5f3dffff80c150cU, 0xf034623e0ff0c0aU, 0xfa1fe50612f5f1e8U, 0x1c16e6f0d41eebefU,
  0x10b8f80c0cd815f7U, 0xef253420e4f4e9f4U, 0x1eeafae7e5260c01U, 0x4f57f2ed9f42903U,
  0xb316a0322c0ce4ecU, 0x242cd4bceb3ecdf4U, 0x1eb70d0944eefbe2U, 0xef120a00ecf3cef7U,
  0x110e01f4fd0bfc08U, 0x16f53e29f0091d0dU, 0xcc29aa3d3424f10dU, 0x3814c5ddf965f3fdU,
  0x10fbb0a2afa02dcU, 0x8f107f3fb04fd11U, 0xf00381f716f021ffU, 0xbf5f51a0f151801U,
  0xeffb8f09fce9211cU, 0x8fef318fd0f1ef8U, 0x3ae842b7ef00210aU, 0xbb1915c236132b30U,
  0x61025f810a381a0dU, 0x82f12daaf404befaU, 0x4ee356a4ef471ff8U, 0x8f0226c6f41fc2e8U,
  0xfff1e40cda2a04e6U, 0x1402f328f8f216d5U, 0xe1f2d31c10ebdfdfU, 0x25fee34e17da3ae8U,
  0xf7f8d23f28f9ccd6U, 0x32e3cb0e0b1f46dbU, 0x1e0727d11d05beffU, 0x213fdcffa0b0f04U,
  0x12ee1ad725da0bedU, 0xdf09f8de0311f60aU, 0x17d633eb2c11fffeU, 0xdafcf908061d042fU,
  0xf0eed0a0804082eU, 0x29ec0c0ff108e6e7U, 0x1dd6e314280617f8U, 0x1cf4ec270407f911U,
  0x20c61dfe2001ff3dU, 0x30fffbf9f1301f1cU, 0xf705f139dfdd097fU, 0x2402ef12ebf4fbf6U,
  0xf5d9d4280c0e1200U, 0x3616e40802ea45ffU, 0xfdf50afe18d5e128U, 0x4d0be0d2e73152e8U,
  0xb22fbfcf5c3e631U, 0xf9e9f5e4f4090707U, 0xedf2e119f611e3f9U, 0x5f50a28f3ecd9efU,
  0xfff22e405010cd9U, 0xfe0bfc070b0b0622U, 0x62f2bfded1b0e1bU, 0x5e5eee40609110bU,
  0xcacb814306f4f3f9U, 0xf901083fe0dca2e8U, 0x30fc32e9d81feccbU, 0xec17f5e313153814U,
  0xfd1f320008201c20U, 0x3ebf5ebfb0e0a15U, 0xdee98f3307f60711U, 0xf10efd2dc7d9c6ddU,
  0x2def1ef5ca16d3cfU, 0xf21bfa0617172809U, 0x32050e080813272fU, 0xe7f608dbebecf1e9U,
  0x12402bf6f0f80de2U, 0xf1f1e0cbf60b15f8U, 0xc1dbcc39ee18f7fcU, 0xf113300e18e8ffU,
  0x1c0cedeb0c35f7fcU, 0xf9e604fefee5fbfeU, 0x27615be20fe125ebU, 0xefe8d3b9ec4c13ccU,
  0xc486815dfd2632d5U, 0xd91d146417fdf41bU, 0xbe8f7fd0c3bbd0aU, 0xfaeded0b04fdff06U,
  0x12433df423f9f8e7U, 0xeaf8b2b6d90af3efU, 0xef9fba2fec473ae7U, 0xf0240a5b01e81422U,
  0x24e330f0e122d61fU, 0xd30d30d63d03141aU, 0x13e029dbe82e2514U, 0x810938ade5aecfdaU,
  0xddc1fd95b32fefa3U, 0x8a0218d4dbb1e9dbU, 0xf4d31fc6b221da8fU, 0xf7f620094518f52aU,
  0xface409b1fe7fb2aU, 0xc4fd2e193025f043U, 0xf3b316e326faf757U, 0xc01b16e8153af231U,
  0xccc21bf20201841U, 0xd805e403f4ebe9edU, 0x15e508d100deda1eU, 0xf9dfe93638ebfd25U,
  0x18cf181913f5fd44U, 0x1e11e80942f1f23dU, 0x4f8fc0319160338U, 0x1dbec23fafa10fcU,
  0x7df0213e222ff15U, 0xfacf000af3e2f7ebU, 0x3e9f316ca12ce23U, 0xfaf8ffecee01ffe1U,
  0xadde711d616d00aU, 0xf8ccea140aee1febU, 0x29bce109cb01fc39U, 0xfea5e11dff054be4U,
  0xf5decc1e91e3037fU, 0x1bf2d520f63623afU, 0x2723ecf1bd08e335U, 0xfbe0fffcfbdd13e9U,
  0x3c15e6c8cd0bf63eU, 0xe6ba1602f4e34de3U, 0x1b36ed11bcecfd5dU, 0x11f1e6161c2a25caU,
  0x7c6fbf5c6fffa3fU, 0x25c0f9252a0d1412U, 0x11e029def4f10631U, 0x16e3e5fd004de218U,
  0xcdf0a29e7040f6bU, 0x14ef02effe1adf20U, 0xfbf2f8191d1e1f5aU, 0x4ceaf0370d065005U,
  0xffe050b03e2fc22U, 0x660cf3ec2d497fe7U, 0xd8d2e8f822d1feedU, 0x290d0fc7f5de5ed2U,
  0xea2bcbf707eccaefU, 0x1104d2050706f9eeU, 0xfd2901e3f903be2fU, 0xfe1023ee03e304f7U,
  0xf81019c42b29f7e9U, 0xde346e111c2e1faU, 0xf40bfdee10fdf4f2U, 0x4a24b5330ff63e30U,
  0x304270039f1cee1U, 0x32fecbeafb44041fU, 0xdaf9174a29e9ecfeU, 0x122be7ca160214e7U,
  0xfd5bf2af0606ef3aU, 0xfebeb3b35dc113dU, 0xaf7fedb952e5feedU, 0x1ffbf0ee1332f92aU,
  0xc147f8fe49c51106U, 0x1022f8c6fc0302edU, 0xf011b3c522181f12U, 0x24eb101629ee1827U,
  0xb125afbc3fe2050dU, 0x22f4eb0cfb1a08f8U, 0x9e28bad354b701ebU, 0x100b09c9c1db03adU,
  0xf2dfd5def3fdd3e9U, 0xecdec0ece12b25e0U, 0xdf27c5fee0061430U, 0x34c3bae7eb2742f4U,
  0xd811c102eedb0854U, 0x23ca0c26bb244dfdU, 0xd9fad4f006e00b18U, 0x12f0e3b8cff72df8U,
  0xb753b2f4fbddf211U, 0x5cd6abd8e2df1a11U, 0xc056beefffa0b610U, 0x25fad920a6e918f6U,
  0xfd03c1c19dfa1eeU, 0x1a20ebd6f82ffc0dU, 0xe008f716d8eedc1aU, 0x7f1fa7ef1809f905U,
  0xfe13e00adfb2a91fU, 0x4820d8291013f514U, 0x9a704121bd2a32cU, 0xfbed03c20b2e28d6U,
  0x1bd8cabbe323481eU, 0xadde0bd60706e3d7U, 0x26def00ad4343b2cU, 0xea0c3ef61657fbfeU,
  0xcae3c9ebf7732837U, 0x4a2021ae3d0bfd8U, 0xaf2983eab1dc1cf8U, 0x21990521db10f6daU,
  0xd00bd802dbd1c5d8U, 0x15b02200d72be1d9U, 0xd3f5b2ffe401b2e8U, 0xe8cbf9362af7c2f0U,
  0x95ec811ff4010af2U, 0x9b6eb4ff3ffbcbeU, 0xb1f0bd06e6df99f0U, 0xf9ba1423fef7d8e0U,
  0xfb0ef7da0afca2d9U, 0xf122ed5313e93843U, 0x2f0d0f401131807U, 0x1412e05448e8104fU,
  0xd4e7d1e3f9011c07U, 0x3204d13425f4fa47U, 0x1a12dfd40f012419U, 0x911f33ffdbe2225U,
  0xfaeac6acf7dd0c35U, 0x1f0cca382a931252U, 0xcadf8fbbbff6dd1dU, 0x300deb4b39b90149U,
  0x12e3e5cdebe0af19U, 0xee021d37ffe51433U, 0xebc2cdbbe7002059U, 0xfefcef5debbb0415U,
  0xd6c2cfdc81fbee34U, 0x13191d461fa60c1aU, 0xffffef3ed0f6b227U, 0xffffffda00000371U,
  0xfffff07c00002485U, 0xdf800000e86U, 0xffffccfd0000144dU, 0xb91ffffee42U,
  0x83000000da1U, 0x103600004e34U, 0xfffff90100000fc6U, 0xfffff90500001a87U,
  0x7b600003007U, 0x9a9000004deU, 0x8b2fffffc6bU, 0x285b000025c5U,
  0x1101000003b4U, 0x53b300002f3cU, 0xc8f2dbf7000033ebU, 0x20d50dff9017f52U,
  0xfaac4907c21d22faU, 0x20ea1ec6bed3d1d9U, 0xe2bffbc2dcb0609U, 0xdecbf214d0032119U,
  0xe11af0cb03fa5ccdU, 0xbc1ca51e05e01203U, 0xd925e7f18131f123U, 0x22ae7fdaffed24d4U,
  0xdbc127405defb805U, 0xe858ffeeb30c13faU, 0xd4dc9af9f811fda6U, 0xf6cff0e3c01b0afcU,
  0xcbf01fb5f8e8e6eaU, 0x344af8f2e87fbce0U, 0xfe350cff280be715U, 0x46cb24f6327f4914U,
  0xa75135fc1cf7b4b1U, 0x2169364d69d90f23U, 0xcbf42320deecdaf0U, 0x437f21f8fe022a34U,
  0xdafd21f3f549de10U, 0xabdb200cedf62824U, 0xfee2a719ed07e1eeU, 0xe313cf077f1cebfcU,
  0x4dc0e057eaf4050dU, 0xe6bddb021744e5fdU, 0xb7e71f2ce405ffeaU, 0x60a2721ec01d0d5U,
  0x140115e208f66e26U, 0x1dd281e6f31dd132U, 0x28eab3f25fd0fb5aU, 0xa9a8082da6af1636U,
  0xdd2602728358b8f8U, 0x7f0c07efdcc46eebU, 0xf11239e757c3a940U, 0x4d4c23ff57528eaU,
  0x21c5f9e721b2d7cfU, 0xf10532ea557f4bf9U, 0xd00a58679eebfc0aU, 0xb708f9f9811cf20fU,
  0xa2dfd52ce613fe3dU, 0x2d30ea2a4037d50bU, 0x18fede0abce32bb6U, 0xe4ecff1b141fb516U,
  0xea03e0ede628661cU, 0xe8b2e53548ead07fU, 0xde8593bce0f0e1bU, 0x1ebe1be70831ccc3U,
  0x6d45505f15ad7fdbU, 0x67d5403445e52a15U, 0x1325bac9eac9e6efU, 0xfe78dd1941010d10U,
  0xc7dd0d5ee107d0fdU, 0x93fc81042d374623U, 0xdbb2f909c3c275cbU, 0xc71dcaaaae9c59d3U,
  0x7f07541ff0da36e6U, 0x362c14a6db1a51c7U, 0x7ffe2d06d5c0e7caU, 0x580d014c0be6fadeU,
  0xcb49def6ebdda3f2U, 0xa957fa0c082312ecU, 0x2429ecc431ee6bd6U, 0xcb166ce7bc532537U,
  0xcd760e237f33d603U, 0x23e0eaea3fe037d1U, 0xe10e9c4dd812c70fU, 0x1011033a09fc060eU,
  0xe2073a090935cfc3U, 0xbd87ff1f5543a01U, 0xf1e03b11db40b109U, 0x141aa140cf56d1afU,
  0x6c262be9cc05c1feU, 0x2c0beb990c2de4e4U, 0x1e039ab7fd4cbcdU, 0xd40532021ae528d8U,
  0xacf4070ef500b0dbU, 0xe43310c2a5311481U, 0x17adf4a117e425c4U, 0x41a8d9d30b02c6eaU,
  0x9cdb1319c4813c4cU, 0x200839ea1c00f8c6U, 0x1059442ae2b5058U, 0xae0f481f021fe03U,
  0x79a6e2c5df43f40dU, 0xec4ee5e0f8f7eedbU, 0x57f7f8e0e12659f5U, 0x3f52256cae51dd74U,
  0x2ffdb89fc228b2e7U, 0x49f902d2feefba1aU, 0xfadf0565ff05277fU, 0x282ed7b34e054eeU,
  0xdd03d740ce07d4U, 0xd9ea2d6061121ee5U, 0x999ff1e07f1524ceU, 0xcfd3d8fb28be38e6U,
  0x68f7a3fbf5a53c81U, 0xc7ac30a6a9ead5dcU, 0xd2e863e1ee9bbc92U, 0xa6ee07131b0c10faU,
  0xd238c54102cde17fU, 0x4601e7eef5c82dd4U, 0xc7d30412beb5d4c6U, 0xca7fe221e28fbf8fU,
  0x1bf62f18e8089c1aU, 0x2c9708ec961bd4e6U, 0x507d0ef01a55d3fU, 0x4da61a71b209b5e0U,
  0x8c001d906911c5cdU, 0x1915ac9ae484bb81U, 0x2256f253175e2841U, 0x25eb5e09df2e4a4dU,
  0x3ac005d829f8e97aU, 0x815815154e8c450U, 0x7fc44bc7e8e3fff7U, 0xc909091456090511U,
  0x45f2740d001312f3U, 0xb2e1040108d22a10U, 0x22811400decedbdbU, 0x92ed243c0af6fbdfU,
  0xba48e4edbb022b0cU, 0xb589c08bcad618f8U, 0x1ce43e121d07d429U, 0xf37fe40112031347U,
  0x1519f624fbd6e5ecU, 0x1f4b231bef06170eU, 0x33706e9f90cU, 0xa270000096bU,
  0xfffffa8500001069U, 0x38afffffd9bU, 0xdb3fffff81aU, 0x4ce00000364U,
  0xffffedc2fffffcbbU, 0xea00000061aU, 0x1519fffffc06U, 0x9ac00000093U,
  0x2957000018f9U, 0xfffff53400000fbeU, 0x1143fffff736U, 0xb3e0000194aU,
  0x16b10000199bU, 0x1ca5000011e9U, 0x10ffffe9d8U, 0xde51bc71d2ff200U,
  0x5e0f022d9e54602U, 0x1b1e23ede8014210U, 0xdc4b9420247dbe2U, 0xa738591208213b36U,
  0xaede0ffd1c00f13bU, 0xdff912f119e33204U, 0x6ff25d8dbc3351dU, 0xddb1d0e102d4bde9U,
  0xe4e2290e220c2bdfU, 0xe442846ba3ad8cdU, 0x9c97813d4e06a8d9U, 0xed0512fc2fd9fbe2U,
  0xb716e60affdd2225U, 0x90f2f8316fca01f2U, 0xf13e55ed230d0c36U, 0xd12d30e35e59b07U,
  0xbbfcfd7730e2e7f2U, 0xf904d3f926d1fe18U, 0xea30e80613be010dU, 0xf4baa53824d9e5f6U,
  0xd7290ac837de15edU, 0x1501d62101f9ff1aU, 0xf0e08f915bb24e7U, 0x241926d9a108e2c4U,
  0xeaf4d71df006b9d3U, 0xc1004d7fdfe5a1bU, 0x2afb7fc50509d9f6U, 0xe8f3ebf9f6da01edU,
  0xf41747d3070bdf03U, 0xd9de19e9d013c0d3U, 0xf9eaebfa2508f3e7U, 0xf273daea18d7f7U,
  0xf7dd0546fb0305f7U, 0xf20d2ccd050cfaddU, 0x12f1effc0e06e701U, 0x5740390bde1b20dbU,
  0xcec8f03710fed3e8U, 0x190c20f5f421dcc9U, 0x9ecf00607103409U, 0xe0123be8deeb4103U,
  0xeaf0d32d0b05e3ddU, 0xe0f6a90c35161458U, 0xfe5431c2da2e702dU, 0x6dbb21a22d7533cU,
  0xec6c24811cfebc21U, 0xe9c1abfd2c221547U, 0x301dfbcd0d0c6017U, 0x12d5f2f30dd70dffU,
  0xefdee20304c6c72bU, 0x13083711ddfce8deU, 0xf2c2db750cbb0904U, 0xce20afd1911df1cU,
  0xf7fe01f419a8f61eU, 0xf6fbe7f0fe020316U, 0xe131ff0bf3e412f4U, 0x40f8e5f4f42114f4U,
  0xcf6f8fbe628360bU, 0xbb0deacd01f0fcf7U, 0xabd25ddf03a010fU, 0xe1090c2cfde3f6d7U,
  0xbb2dde041fe8e401U, 0x34bfd622c3d5b604U, 0xb1fe351612cccce4U, 0xdf4cf1e12961382dU,
  0x7d0107eaf20042eaU, 0xf3f9f329c427dee5U, 0xe220f9080cff12d4U, 0x97f5323e04810cc9U,
  0xd7cbf6c3f9ffe20eU, 0x2f06d3e11f1bf421U, 0xee140e17eac32228U, 0x6e71de0f6d530d8U,
  0xe1e11507c3e2fa11U, 0x2d5fefc3516fde8U, 0xad07efe2f9e4f513U, 0xc01f91439f3dabdU,
  0xe419f1c4e5040b1fU, 0xfbfe32ee220420c5U, 0xebe8f1dd012bb6f0U, 0xea19ef170db04705U,
  0x15147ff706c91b20U, 0x2e6bcf606e3f1d8U, 0xca101fc4cd1b563eU, 0xdfe6e5e40111f7faU,
  0xf4c71bce3033fdd0U, 0x4591c09fee31cd1U, 0x56c4aa29453320a5U, 0xe631d42ce5d02226U,
  0xb4def24c2a2af124U, 0xe6f835ec210234f8U, 0xff13160ff10bec1eU, 0xbcd5f7fe7fd902f0U,
  0x21f93ec8e1f33614U, 0xe9d221e817073ae4U, 0x3dc42ff3cc0510f3U, 0x2d2a1afcde09fbffU,
  0xf1fbac3036ffe9e0U, 0x31e100f5582c3de3U, 0x35eb01dd0dd124fbU, 0xfdf435f4462ad909U,
  0x170ce0022510fdecU, 0x192121fab2ebd212U, 0xf4e5cb5537f2f0faU, 0xcfa1b06fd16f921U,
  0x1ef9111522db02fcU, 0xbca05d80c0cf2f5U, 0x1c01feff1df214daU, 0x61ced00f910e2e6U,
  0xfe12141fe2170e31U, 0xe207e610d720eb18U, 0xe4ef15f3eff21f24U, 0xf3efd604f3dde10dU,
  0xd503f2f100e4172eU, 0x3c24004cde901U, 0xe128041502ec2e19U, 0xcb14d83900cdb1f9U,
  0xa1529f02a170aeaU, 0xbefea0ee9e7c4ebU, 0xc22305f934f4d3ecU, 0x1412dd01110b270fU,
  0xef1a1d0df1091002U, 0x210efe08f1bc11ebU, 0x101111e11f23f3e3U, 0x2a451de2d57f1a21U,
  0x2aeaf9512d08f3e2U, 0x174002c6c27eaa07U, 0x1eed1733dd1715fdU, 0xf2dfdf1035092411U,
  0xb940dfaf0f1c122fU, 0xe9e3e51d11100ae5U, 0x1efacddbf8312decU, 0xe4a9d7f323adf705U,
  0xd713f68106ceac18U, 0x5b25e927cecbfae9U, 0xebfb9cdc261dc5cdU, 0xd6e6f558f5972a4bU,
  0xf3ff2fb728c9d9c7U, 0xf8c8c3c22c4dd11bU, 0xfd28ed95e33a1001U, 0xb1fd1cfc0c6aec37U,
  0xc4ef9c2e34f461bU, 0xe0e6520cf142f61bU, 0x2cefe5f2081f2005U, 0xe3ec02fad03708c7U,
  0xd9b0d6f5065cc7d1U, 0xfc2ee7fbaef40146U, 0x33021f43deee58f4U, 0x24fcd70d001b1a14U,
  0xc937fcebfc1be1e5U, 0x361e06e215660c2eU, 0x5dd5d5e2cb42fbb7U, 0xe9fec2e0b1cf2035U,
  0x4af5b10fcba35109U, 0xeed7f72e2015e0adU, 0x41adfd0c61620f2U, 0x16030e131ec004e3U,
  0xb0b17f9cab3e23cU, 0x41b6a5ff2f1118cfU, 0xe520d78115dbd80dU, 0x6fcf52e20f209efU,
  0x3731e2d3f2e9f1e7U, 0xfd161eff2cb3040bU, 0xf7fc23e5ec1af202U, 0x6daf6e90f0acadaU,
  0xbc11d31dfac0f0f1U, 0xf500f4f902f8eceeU, 0xc20cee090408cde1U, 0xd05c1b0fe7cb3b25U,
  0x7bd01f28f611f824U, 0xfca5f8f9f605f92dU, 0x81f41700fbc7f9ecU, 0xeef412cc31f6e5f2U,
  0xd30dec06e7fb061cU, 0x2610ffe1073a0508U, 0x43e5fa012238f519U, 0x311041bf6f10931U,
  0xacdffaf824dad80eU, 0xfee1f3ff05fbf0edU, 0xe0f00cf1f4cfe9f2U, 0x151f1424cb04f0f1U,
  0x1320e91a0ef4f7ddU, 0xef1401f3262723e4U, 0xf7f410161617c3e4U, 0x3aeecfd07d2dbc8U,
  0xbe1211ae20e5dfdfU, 0xc6dcea0dffe8ba0dU, 0xc2255dd5f7d521f4U, 0x34e436fdf96a8394U,
  0x23ef023ffd2b04c8U, 0xbc3a7ff008c3410dU, 0x10ebe2c4240791b0U, 0x161716f5f60b26e4U,
  0xf2dcd1a07f1a5f6U, 0xfccac00b2db50d04U, 0xc7393fcdf4bbd543U, 0xa0adaca2151f6d1U,
  0xfde7f50cdc20320cU, 0xf721dfb44307123aU, 0xbec11d9cb1a371bU, 0x289bc0e42d15e5b1U,
  0x60e342bcca2132e6U, 0xf15b0abd9753210bU, 0x5d3f511e74d81abU, 0x34c5b2b76aefc709U,
  0x211427e3ed91241dU, 0xfcaea4e122a9f8ebU, 0x25f325b803afc4ddU, 0x1e1026f2be519cddU,
  0x85f8b1c504f8aeb3U, 0xbf1cfec15f657f9U, 0x15f401c9f0f2342dU, 0xfbd2d2fcf4d7fed8U,
  0x4d01d9c11f18211dU, 0xc67f52ccf2bc414U, 0xe8ead1fe14fbfff1U, 0x80a1219f3f60efbU,
  0xfbfefbf10b01f8ecU, 0xa420301419ebd50fU, 0x7ecf4f21411faf8U, 0x26dade0fefdc16e4U,
  0xd3f5f80109caeafdU, 0xfb0c11000ef5daf8U, 0xed0ce911fbe80903U, 0x1ab9e812f081b30aU,
  0xe6f4f0e211c9172bU, 0x156d8eb003b5cf4U, 0x1a031c01ff1df92bU, 0xeae3e0d3ff0302fdU,
  0xf9e802dcfae7fc01U, 0x42dbf0f7df353bc3U, 0x1ed7fc1004f8f001U, 0xbd28eae0e6120319U,
  0x1303cce1f4332d0bU, 0xf200f519f1b9d6e6U, 0xdbfce0121c07e4fdU, 0x2cef1fed0dd81c02U,
  0xd3b9f64ed8d8f8e7U, 0x1fa2bb01fc512e7U, 0xcad0e022f2f0eee8U, 0x1412f11dd622ceefU,
  0xc80fd25230f9fbefU, 0xcb03f1271b50e740U, 0xe659f10ff70b7f35U, 0xc3d815d61111e7daU,
  0x430fbc03086243daU, 0xe6fbedfc1df5efdeU, 0x219fce805e10513U, 0xdee9f4cefa0a0020U,
  0xf80109ce0ff0fa2fU, 0x1d4eab8fcf9f0e3U, 0xee1b19af1bf9ea16U, 0xfe2304dcf3151cfdU,
  0x31fcd32209f0fd01U, 0x260ed7f9d5f62229U, 0x1912bf3d0ae728ebU, 0xf631b803bcfd133cU,
  0x2d11013dfce0190eU, 0x4f2c80316fbe200U, 0xda2002f030bf1211U, 0x3300e71aedea19e4U,
  0xc80d89e43006d3f4U, 0xe723d42af3f3e607U, 0x3a22def40b1006fbU, 0xf0090bebf5211fd7U,
  0x38021cfe00d5fef6U, 0xfc1927e5d44edef5U, 0xf213b913fc340dc4U, 0xeecfff0500c8dafbU,
  0x7ff705d1e1283bf5U, 0xf701da030128d3feU, 0xe7fceebf04fb373cU, 0xcddcba0c47090b0cU,
  0xde03d1811c320d21U, 0xe512de131f19e1d9U, 0xfa09caa01427fe0bU, 0xebebf5e1ddc4fae8U,
  0xd2f92229dbb2ea2bU, 0xf70035d0da0b17dbU, 0xded9ca33d613c3cfU, 0xcd083fc9c100ccc4U,
  0xe5b2d577b5fd2a04U, 0x11e0f9da2ce90ad6U, 0xf4e80d0cf0b7f413U, 0xdf1ffdf05f2eed3U,
  0xd9dad743fcebf7c1U, 0xd2f3d207ecdade19U, 0xe800e32ae6d843eeU, 0x2a0ffffe62cU,
  0x4effffe991U, 0xfffffcf1000000c1U, 0xcecfffff979U, 0xffffff67000016b4U,
  0x3806ffffffc1U, 0xfffffcbe00000713U, 0x1cdf00000ebbU, 0xec0934c9e3dd2531U,
  0xf43de30dd7de1201U, 0xef2709e31ff2f4e5U, 0x122ce41a12fab630U, 0x4f50a01faed3e19U,
  0x220af22f3113c5f1U, 0xd61e33e5e7ebfa11U, 0x907f2ed1be6dddfU, 0x12a36fbfb1dead9U,
  0xb928eb5608c1f708U, 0x23e73d0708fee7e7U, 0xd0231000e5d4b3e5U, 0xde6a114e8e4edU,
  0x43191b0d0ff6f3deU, 0xf9e9351520204dd8U, 0x1814c811f5f70d4eU, 0xe2e30907f520040cU,
  0xdbfbfaf1dcef7f23U, 0xdfd0f6ea09fcf6fbU, 0x524dad7182b0cbeU, 0x2144b6d7fefc03e3U,
  0xe8ee053b3d16e4edU, 0x743cb4748170ff4U, 0xc8d71630f5091528U, 0xf602f7f6d5f73c11U,
  0xdcd8e9fe2c0844caU, 0xc810cf0481f2ffb5U, 0xe35eb4522cceae3U, 0xf8dfe08ad4effeceU,
  0x3513fc60b8e3d816U, 0x6f01c291edc07e8U, 0xf8ebbcd70c28fecfU, 0xe2ee000cbead1ac9U,
  0x1f2cef33ddd416eeU, 0xe60fb916b5fddfedU, 0x1ce0262205f4bd28U, 0x2cf20b00fc15133eU,
  0xc9fd0af5f1441015U, 0x13ae06f241dc2408U, 0xcbee190cc7f3a27U, 0x22ef7370aeb05deU,
  0x1a13e8a5d027d0ebU, 0xe7e6e41efa1de9f0U, 0xe5b211b31821e5fdU, 0xd7cfac294fd20b26U,
  0xdabbcf98164815b6U, 0xd7f3226c558bf1b3U, 0x18fbfdd8f1275bb1U, 0xe03d91087ef2d03U,
  0xacefd3d830262edbU, 0xd1e9c3f222ba0210U, 0xbcec2c33518fed4U, 0xe7df062217b919f7U,
  0x1dfee1e7b7cf572aU, 0xe93215150d28fa06U, 0x413e8f9ecc701e0U, 0xd22fbd51e0a04d7U,
  0xe015f4ece0dfd7a7U, 0xee5c3c052cdf210aU, 0xe713cd4923ffd1c2U, 0xb241e123ae525f9U,
  0x27e411f8f40e0c27U, 0xf611040eb1391de4U, 0xf2bb57ddeaf9db1dU, 0x37d34ef27f220b18U,
  0xf6e62d41e148a20eU, 0xf359aca032ec51aU, 0x4e245110c6b80404U, 0x68f4e315eb4d06deU,
  0xcd443e1cad2f102U, 0x18fd29b74143ccfaU, 0xfdec2dff3a14fee6U, 0xe0e53f3eec0c5626U,
  0x20f0ee2be2fc38c1U, 0xd7ff240d2b043efeU, 0x25be0ba4fb2b38b2U, 0xcf13ea0f08f2f2f5U,
  0x23e30fd70b27f5a7U, 0xfccc0ec13ef926f4U, 0x1f373239082408ddU, 0xa1c31c1e050c7f3dU,
  0xea0bfb83bc1c0102U, 0xf1d7d7220da5fb52U, 0xfc12faca9f2526bdU, 0xfbf7c5effe0fdde2U,
  0xb5c51bece0e0704U, 0x1eee5fffb69f9e1U, 0x28324a96f205d80bU, 0xf4c7fc0a11175516U,
  0x50b19eaef16ecf4U, 0x52d1aefd00ee3f5U, 0x36edff252af7f70aU, 0x132538e6cbf212f2U,
  0x2217335238d0ef04U, 0x2cc02afbe411f9f2U, 0x43e22f5c0f9e3U, 0x101ef506a1cfd2a1U,
  0x634f6540fabf1edU, 0xf12608c99eddb7e2U, 0xf93a2f1407d2f2c6U, 0xc1f4d9811014980bU,
  0x310b0c0801d0a8e8U, 0xfa52271000cb13bcU, 0x5e29ec1714e4ed00U, 0xf9ead89fc3d10cc7U,
  0xf9310634ebedd506U, 0xf8ec8cadf00b3dd3U, 0x1f0bc91f03e2abf0U, 0xfb22a70424f202c5U,
  0xdf0615d94df7ececU, 0xf7fbec282d0cfd29U, 0xf30af1df1533460eU, 0xbcd50afffee21819U,
  0x6def0b7ee1ff1bfU, 0x2016e40831ddfdf7U, 0xdece7f7dc2effc0U, 0x2afacade3b0c011dU,
  0xebc828814f28fe00U, 0xefbae5da21fe0f09U, 0xf68de4bdef263114U, 0x1b924e50dd12ad7U,
  0xf7cfcdbba3261cd2U, 0xcedef1d05fefb01U, 0xd101f6b7df0acdfeU, 0x1e0809003f17d2d1U,
  0xeeef0d0f2255f808U, 0x7b2efeaef0035b8U, 0x4c3e05eac7b4ea9eU, 0xd11481fa5af2d6fbU,
  0xc2ecc30cd6d80dfdU, 0xf61263040427511fU, 0xe3e508f9a4d65627U, 0xfe920d3b8860b11U,
  0x231917e1c9edd190U, 0xf119c09325bfa428U, 0xdbec98ff0e16c4a0U, 0xcc004b064f90fdd1U,
  0x4ed4d0db1de1db7U, 0x1df0fc05dfc5f14bU, 0xdffbe904ccb2f2efU, 0x1223d0cdfccab3f8U,
  0xd9ac92227be20bf1U, 0xd4000e1620bfc192U, 0x1bdc1f1e01dd58f8U, 0xece4d3dde119f50dU,
  0x12123bea80cea09U, 0x43206f4bfe9bf37U, 0xdd2008fdecec0f07U, 0xeab6d0f9dfe0ec05U,
  0xe9bf0a191dfcf9d9U, 0xe0bba6e3d9b3e601U, 0xf0f5049ccc3cc4dfU, 0x1c43f3033ef0f0f1U,
  0x20ea147fe840f4ffU, 0x1ef5d1ddafa5ef0U, 0xd0d84c2d0218f823U, 0xdc09ba19b4c90233U,
  0xed0e0fc7d00c04c1U, 0x210325d54ee4e9b5U, 0x4801112d2d13f4faU, 0xf9bb4a88ce22ebf2U,
  0xf9c53e9ff2472c0dU, 0xe43b2433cbe91f19U, 0x27c0e2ff2511ffb1U, 0xf121ca00fcb603e3U,
  0x81b2bc9e607edeeU, 0x1222f1edf71a1801U, 0x302cff3dfcf41818U, 0xcdba2fc8e181324fU,
  0xf5c7e6fc01350a17U, 0xf9c4d6fbf9110cefU, 0x13db06119f2e1433U, 0x3f24d5aecd0fee90U,
  0xe12fd83deaf7f9f5U, 0xd7caac079d4f1223U, 0xbfe0307fafa1f36U, 0x6453c938bf5bf42cU,
  0xeb1f6707f81dffU, 0xec4ca2d1c706a902U, 0x336f363b4f0b143U, 0x9bd31e32af04dcdaU,
  0x49d6ddf5b8d117c5U, 0xdee648d9e2d4df1bU, 0xd07fb0ecec09c14U, 0xf1fe4e91847c80cU,
  0x12f506f7ebe1ff4aU, 0xb6d94bc905837fc4U, 0x48ebc9eac2d303e8U, 0xaff5fac0c8ea2ef7U,
  0x35ff1edcd4c0b404U, 0x3408cae3db64031cU, 0x5a2009cafbd4c438U, 0x8adae7c806d729d2U,
  0x59e328dfd71aee11U, 0xf8d6f2b8e42c07f1U, 0x31ef2dfcd0f9e414U, 0x52fcd1ec040a16cdU,
  0x3ad1e00b0bec03caU, 0x10bae8322c1cf109U, 0xd10af4f64a001403U, 0xf3ddd6e0401adabfU,
  0xee1e06002bf549f0U, 0x3fc0bc43512150eU, 0x170a07fafe2a0912U, 0x2dfa1645cffbee1dU,
  0xceeaf2f554e23147U, 0xeae500b5ddb4b5d7U, 0xfa1cecf5e4197fbfU, 0x20623dc35edf8f4U,
  0xe907c9f2f7eed809U, 0xd2090020cfe8f760U, 0xd7dbccf61ced0824U, 0xe9d701f5e9d5a2ffU,
  0x1506e5de170c43c4U, 0xf4080ae1e0fcdcf6U, 0x900ddebfd120c03U, 0x1b1ad911d1e5eefbU,
  0xf11e3a2137f3e6d4U, 0xe426b8dbeff1012dU, 0xc01eafd002102e3U, 0xeb1bebffefe122ffU,
  0x18ed10daf0f900e7U, 0xfaf60110e25a0c06U, 0xf5e52bd57f040100U, 0xf7f3e7d2f108055aU,
  0x2bf7c7f3073fe0f8U, 0xe4fbd6d6f1b1fe1eU, 0x1f4d1e61c2fdff6U, 0xff44251e0b13180dU,
  0xf7060ae127fd03d7U, 0xee1f052214e2ec02U, 0xf3e8e81c40e4eec6U, 0xe5ebf0f9fed8e238U,
  0xff0ad7f61b11120dU, 0x1511cd13c4bf1ef2U, 0xef40dff9b21c0ffeU, 0x4f18ea042ffe2ed7U,
  0xd71becf5dd0e19e5U, 0xfdfe05c916f01cedU, 0xc526f020c42cebbdU, 0x141a00daf8f7f7f3U,
  0xcadbedf9d7171c0eU, 0x16f20a02ddf3fca7U, 0xc9d309f62a03ecedU, 0x120accbc7f04b3e9U,
  0xd8db33035247d0c7U, 0xecd3052b30e817f4U, 0xadbef0f5bc3c2ffbU, 0xc4f6d5ff25c914eaU,
  0xc3d4d6c50419d326U, 0x7ee0f0de5dceef2U, 0xf6fab9262d15ecf7U, 0x200dee38e52d0f49U,
  0x31faf2e2cfde1406U, 0x1719164fdb223c14U, 0x13f4ed0af5d9f104U, 0x2d4f564ef40d33e2U,
  0x29d6fac31bd7dfbeU, 0x15d99a14faed0220U, 0xf6e8f7d5f9fb28faU, 0x4815fc2bdfea7f22U,
  0x14e0ff0103cf0307U, 0x2524363a044053c8U, 0x1cbdfb0ee7c5efcdU, 0x27053a0812acd45bU,
  0xddf597f808db24f0U, 0x38254b4de9d33a56U, 0x3ff2c0ee4bbdfabaU, 0xd80e3159f7ba1a09U,
  0x151ee30f26bb32d8U, 0xc9fbd8d6e5f8e6deU, 0xf1f2f9fbfaf9fd32U, 0xb8e5e23dedf2d60cU,
  0xfee306d6cdeac2eeU, 0xd5cbec33ebfceb02U, 0x241300d9d70b00b0U, 0xfe98fe02340feeb4U,
  0xfa0ae7fdd717cc19U, 0xffbbeb0ce3f7f00bU, 0xeee019ade2439b0cU, 0xeb5c646d4f3050eU,
  0x2de905eb55292afbU, 0x4dfb7e6e0f1d5c6U, 0xd8af45d6d0e1e618U, 0xf9e1dfd2f57fcc3bU,
  0xf6c140de4217f9aeU, 0xe7c01502d5e30c35U, 0xd4e4d2ebe115f5ebU, 0xb1000000b35U,
  0xfffff36100000248U, 0xfffffe8c00000e89U, 0x138a00000873U, 0x1203000015ecU,
  0x77f00000e4cU, 0x55700000722U, 0x1d53fffff051U, 0x1cff352af9061f00U,
  0x1892e0f003210b22U, 0xff0442c6b7d1d50aU, 0x388147e02750dafdU, 0xe90df1a7f23dd00dU,
  0xfe9240105ccb4d2U, 0x18c8becd1b5f1c0cU, 0x1908ea16d614f2f9U, 0xd0cbdbfafacd3bU,
  0x32d2e513e6dd31eeU, 0x3aa921d5bdfe0708U, 0xb8ddec12189ab554U, 0xfbde10f91019bcffU,
  0xce43d3092216a2d0U, 0x31891ccb35ffc3e6U, 0xdc182ed1f7dfa8b8U, 0x6a1f32b9ea3bcf1cU,
  0xede2c37313c38d42U, 0x4955432dbb3af313U, 0x17f9bd0b0629b0d8U, 0xf2fae6f60df7d708U,
  0xfe2850d9efdbc6faU, 0xd92fedf23dfadc12U, 0x5cf12d05cbe9dcfbU, 0x540403379f70c401U,
  0xc8d6ad1318e88facU, 0xe3fdddebf30ed2f5U, 0xe6f3daf0e0cddc05U, 0x725e6c4711e17fdU,
  0x5ced2a0db8d50e1cU, 0x4409c2fedc1d9d27U, 0xbae6c413ef03f61bU, 0x10c98113eabbf6dcU,
  0xb6f812c405f10209U, 0xf5fba41a41250b29U, 0x2f14471ff8112ddcU, 0x26eef0cf670a0cd2U,
  0x50d80602ec3d3ddeU, 0xe029a9e0ff02d818U, 0x11051c000bda2826U, 0xcc2fe615ef3ac8b9U,
  0x7fc0024022021016U, 0xecd9fbbffbc51becU, 0xdb18cd08fcc8dfeaU, 0xdc2911d9f7e4edd2U,
  0xbdd2dba642e38435U, 0x1c28d6cdf3f5000cU, 0xc8ecf195e6f69c0eU, 0x2e0de216ed0ad7e9U,
  0xcd13ff16f6c6ff34U, 0xd7fbefec0afc1810U, 0xccdef9d2fcc80d24U, 0x2b0a2c3eb7f7f0e4U,
  0xbad0fbefeafb17d1U, 0xfce8262bf82de0e4U, 0x23fca4d9e96a0900U, 0xcf08c2013306f00dU,
  0x1d214004c5161ce3U, 0xf5b0eec71f01e1caU, 0xf75c3c9bc60bfe11U, 0xd6e5db02df3bdec6U,
  0x432a274fe8f53fd8U, 0xc2b72649fd13f7a0U, 0x1a08ffe1cbccd80dU, 0xe781cbda230307dfU,
  0x1d3d1784e896bc2eU, 0xad20e1d516081c2fU, 0x3f221bdc18b82ef3U, 0x97e51ae2f10ff9c5U,
  0x30fb1ff801f4dbf2U, 0x1383805c907f0dbU, 0xd6d3b72f24e6cfdfU, 0xf2119eddd72cc45fU,
  0xab5efdcfc14e31aU, 0x28d81bdbaaf5fd15U, 0x3bba81400d3abd0fU, 0xeafe9b05e6c8d9eeU,
  0xde13b1071b0decf6U, 0x450fccc40222ffe8U, 0xc8dbf8d3c80abb15U, 0xcde8b7f22afbad3dU,
  0xd91d1917e3597012U, 0xadfceb26e6a6cdd8U, 0xc0ccd0161ddac8f8U, 0x201dd10bea01a3bbU,
  0xf4ea14b8aed8def8U, 0xd2f0acd805e8facaU, 0xe6182fc7ed025137U, 0xd76748f72bfcb9aeU,
  0xe4f405f9f536db41U, 0x7f34c107f3363506U, 0x6eb41158e81203dbU, 0xee29bb2524e2f117U,
  0x29022cdf032504f6U, 0xbd1c72520fb2444U, 0xedc23e7c7fd1d1bU, 0x2234fa29cf35cc0dU,
  0x4d5a81b1311e3c6U, 0x8ef04f5ed1ca823U, 0x1dd99b0716f2b6daU, 0x49acf9e2dff01c22U,
  0xd400bbe8f5b2c3edU, 0xcf64504f60517d2U, 0x120f4f000269d40U, 0xdfee1918fe43da07U,
  0x12f1f11fdc1ac7f7U, 0x1dec53fdd513d0deU, 0xe91ce82ad105f02bU, 0x9c44392dacd11f9U,
  0xf827db9b15f1de13U, 0xfe330398c703fda6U, 0xaf0e2f2954f201cU, 0x50db5d9e2fbc04bU,
  0xfc2c2bd8f9f97701U, 0x48d22cc0f26728fdU, 0x210d11aec46efcf9U, 0x120de381e0b6c63bU,
  0x911001aea3105e20U, 0xd3f5f30309c4e1f8U, 0x8a62f78a00951b15U, 0x3d412c9bebbd905U,
  0xd8bce9260a17562aU, 0xddc22be0cfaa1a0cU, 0x98b010f65f9b122fU, 0x20124727cf16dbe5U,
  0xf11a13a837075109U, 0xecf213e8cad6e9dcU, 0xfc0300ed00c8fcbcU, 0xd4db0ef2351e1d10U,
  0x193a24cdfadc0bd6U, 0xecdc16d40c0cfddaU, 0xe17e400ea12cd1aU, 0xe7c5a381ffccd115U,
  0xdf1bfbd6d3c7e7dcU, 0xa108f6f5ee1d2340U, 0x5f3f2dc3dfe728fbU, 0x411c131da40fec5dU,
  0xb8edc5142317e9c7U, 0xfbe6e0da2ec71005U, 0xcf39f0b7eaee1cdcU, 0x2c2fd813e9f51e23U,
  0x22209353e90314ffU, 0x331e227a06eaf40bU, 0xf0d4c5012be0ffefU, 0xd1e51712f6cae4c8U,
  0xdeb216cce1fdfffdU, 0xce241f16f1ec0208U, 0xd02d3a1de9f2ebf5U, 0xd213819d6c12ffeU,
  0xcf4063731212af8U, 0xb0f2fcfbe02dfcbbU, 0xeab7e0daf358d2f9U, 0xc51465f9f75f43c7U,
  0x230a16a4ca25810eU, 0xfbf4c5fe24cec511U, 0x130a7504fd12780bU, 0x19f9f809d134d5bbU,
  0xb2d8f805d21bc307U, 0xd01628f8bd67aedfU, 0x2ff3d3ddd95ef307U, 0x1f0103280b9444feU,
  0xb2930c6f6dbfd64U, 0xfa37d2384fda05e6U, 0xc35f09ebdfd1fc16U, 0x2732e21cdbcc0dd1U,
  0xd009cd3dcee30d11U, 0xdd47a5198a1226f3U, 0xdc3cf7fcbbeb23f3U, 0xcf3d064ff060e1cU,
  0xee0b3b0e566e3b9U, 0xa0c3f1083dd6e629U, 0xebf641b0bff7f5ecU, 0xa7e8fbe9eb123c91U,
  0x6909fb81b21bf22cU, 0xea1fe85e15b5cc02U, 0xfdecd0f50b384818U, 0xdfec57000ae74308U,
  0xebe009f8e007e30aU, 0xe8cb4be43511fcdfU, 0xf2d4051dd74ec7c3U, 0xdaea23f8e935f5f4U,
  0xfd23d09ef21209fdU, 0x4e24fcf6e4ebf5d8U, 0xd11edc8e3e7052cU, 0x1efe3f3fdcfd102U,
  0xdfe9f9f607be3218U, 0xd1da3aff614a14e1U, 0xef21dadddf571e20U, 0xe94e34ff89add33cU,
  0x7fe6f64be5b300dfU, 0xf9ddc5c3b9b4fa0aU, 0x8302f71b17bf0405U, 0xfb1903aa02fd1928U,
  0x1bf0e839ed15d5e2U, 0xcfdee9d107c8e612U, 0xbefeef703d5f3f3U, 0xfbce00f31f0dd3c3U,
  0x2f8bfcc1c170bU, 0xf9d90ef64c13cfeaU, 0xe379faf5e8a40c03U, 0xea111a0f2ccf0b16U,
  0xc712f1f10adde534U, 0xf7fb2ee3ddf90cfcU, 0x13aadfe7030f073eU, 0x55efe1c0b7a598b7U,
  0x9d629726c8988d2bU, 0x654ee85933475721U, 0x3cc48e28c9d1da1eU, 0xb69f22db5dd00601U,
  0x56e70581cc454525U, 0xdc0dd31a1d99b8ceU, 0xb71e3321cad8e2e9U, 0x24ea97f20634a3f7U,
  0xc7da0c2bb8cb0a03U, 0xa807ebd126f8eae0U, 0x3efdceadb46dbd5eU, 0xf2cbe8f70d5fdce7U,
  0x12bc1ffffa15d721U, 0x32a16dc0feef528U, 0xf5ed30dfd71ddf19U, 0xf5180ae7e9ef281cU,
  0xdce6e33f003018e5U, 0xe00cc0d6c20dc7ebU, 0xbcf63007e9d0c6ddU, 0xd9e8a9b7f50d9c10U,
  0x13fa2fdda5aa16a8U, 0x40bcfd6d8eac4f0U, 0xb001b722e3f2ef04U, 0x482c201ecfdd4d04U,
  0xe586edd8ebf3fba2U, 0xf52acd02cf136c26U, 0xf4dc15b6bbe101e3U, 0xd51dc6c4ccfe7f0bU,
  0x1101b3e0f9dd0eebU, 0x1feaee1713e522d8U, 0xdb22f0f812bb0120U, 0xddb736f21acc27ceU,
  0xc2d4fceaa40a0d4bU, 0x112614f4db5f0cb8U, 0x50ee1fe8b80ec94cU, 0xe62ebaf81fadfdfcU,
  0xd8263f420fa141f6U, 0xfae636b3df595284U, 0xfabba622ed15fb0bU, 0xd7546dc7cd1d0288U,
  0x41d6981baa1fe8d1U, 0x284eed4b37ea571fU, 0xea3150fcee053a3aU, 0xa0f9ff21ec2d03dbU,
  0x95e1f2cdf34f7f28U, 0xc10057af9e43a494U, 0x14bfab14881cc90bU, 0x2e3824dde5cdd4bfU,
  0xe3f0c23fd082feebU, 0xc5c0fb2ffb12db31U, 0xb105ce0bc6d205e2U, 0xf1c1981debcb03acU,
  0xa938a79c04f915ceU, 0xfd153b403bf0ede9U, 0x1ff102e1d80609cbU, 0xf2bf1c3d300efdecU,
  0x22104feaa2021741U, 0xfc45d206aec52be9U, 0xebd4bf1109e8cf1bU, 0xeecf02eaade26d91U,
  0xacfdda7f309bef2U, 0x1aea52bdcc27e0c6U, 0xcd5a6e4ea240a0cU, 0x65d927bde7d69fe7U,
  0xb3b281260ba00bfeU, 0xdbd720d1ff21daf1U, 0x1fe9f7cf15eef4U, 0xdee0f2f2e5fd0a31U,
  0xebf720082c8530f7U, 0xf00200ebdddf2302U, 0xf3d20f10050cfa02U, 0x1be00bf61211e2a5U,
  0x4effebb4dd3706f0U, 0xfc15fced8ed4135fU, 0x96df34522f81f5d0U, 0xfc2b142008f203b1U,
  0xe116dbdd112b0debU, 0x1013e3e8ec22eaecU, 0xdf8f1b5f62d19e6U, 0xcb12f2e9ba0fd031U,
  0xa5fa154ab1c71c1dU, 0xee0f07dc02f1f6baU, 0x8f1e3e1cce11ffeU, 0x271f00002e96U,
  0x37eb00003a5aU, 0x1a34000057fdU, 0x138c00001fdeU, 0x1ff900000295U,
  0x1e9900002f77U, 0x53ee00006386U, 0x237600006c53U, 0xe3e728cfd9cdc008U,
  0xea194ce5edef396bU, 0x2a4bf815ecdddf01U, 0xe3fb229eb1424455U, 0x3e3b333254eceff6U,
  0x2031ec4093920f1U, 0x17fe333638da1b1cU, 0xd4e7f5f3b3fffc6bU, 0xf949fcef2729e2e7U,
  0xa4e2f3c581d1035eU, 0xe2daf5cfead2dc0aU, 0xd72611eec5cadefcU, 0x30f62eee25fd59d8U,
  0xef2ee1e00cdaf23fU, 0x252c1bf1f622d4d4U, 0x1a3a29b7ed07e923U, 0xe50664e1d43297d2U,
  0x234629dedafec431U, 0xc80d0ef30818f108U, 0xea1b6b2af417b2f6U, 0xe762faf9d11028dcU,
  0x20e602d5293490e5U, 0xdc0a110b34ee31f0U, 0xffeb1af11feaf148U, 0x18d9f0ccf1edd601U,
  0xf1276f1e17e02540U, 0x1903fad626eed622U, 0x21513d60bf2af33U, 0x525f8581ae80911U,
  0x6ebd51d1c07cd20U, 0x4a0428b9f1401ce2U, 0x1c1f33f7ebdae811U, 0xd4e81de403c5edefU,
  0xe912fdf5b7ecb27fU, 0xf2741dd9ff1216feU, 0x4c0bbaf0f4ff0b18U, 0xfcbc34a1cae0bf2bU,
  0xf078b7f92801e3e1U, 0x3ad133be42e001b6U, 0xd2121dfe0ad55cc2U, 0x5cead80733e3012fU,
  0xd9df0f080bf219e8U, 0xf3bc20c456d218faU, 0xf803e30f070ac618U, 0x25c83e2b07c823cbU,
  0x48614fa559442516U, 0x3a4f826e808ef21U, 0x51242dc2e01abeb9U, 0xe0c8ffe9c3baf3f2U,
  0xf411efcc21cefebfU, 0xf7d8d263aeb2d9c4U, 0x14201fc24715100bU, 0xf4bfb0e981d4abdbU,
  0x193a01b0c134e01bU, 0xf54ffc1034ecf204U, 0xce0ce7082107f0cdU, 0x2841140b031cf776U,
  0x3fefbf01d074f1f5U, 0xf7f3edfb0225ea0cU, 0x2030f4e41101d4f6U, 0x36112edb1227de01U,
  0xf9074711dafecbc1U, 0x11080eb9d53ad81fU, 0x6d72985aafefef9U, 0xe5f82dc7024f08bfU,
  0x48d71bcc26f7e6fbU, 0x3718d005d9fbf713U, 0x360e5d14b5f5ce21U, 0x891ab9e8d2cb296cU,
  0x81d9dee2f315c506U, 0xf0c4240e07da4a17U, 0x161ec0dc5c22df18U, 0x14fce202871723d9U,
  0xd6d0be1be1f4ea2cU, 0x9efbda260f16faacU, 0xab0407480515dfdfU, 0x17f503127f0df3c8U,
  0xfe1ec81cc4f332eaU, 0xee2a012f013e1df5U, 0xfbfd03e87ef31547U, 0xda18e013fb1c26c8U,
  0xc527d70d01be72b0U, 0x5efa1d1d01cde1dbU, 0xbf272bed9f311cd0U, 0x1a2ff15a2901ddd0U,
  0x1011b3b1e5faf303U, 0xe1d2e501347214dfU, 0xe8ff09e292371106U, 0xcef6aa4fc135c1baU,
  0x3dbd40ad1ef0121U, 0xbd2555f5e9f1dfd5U, 0x31edfadd19f32bbaU, 0xbceb3b3311f409c5U,
  0xe4eee40a01f80905U, 0xfaeb15285fee0a23U, 0xd4021a09d0c77fddU, 0x1e83f07db380ae6U,
  0x35e3fce703096da2U, 0xaea00f9f5ec08b4U, 0xf50702ddabf706c0U, 0xfdefde029b3d0f6U,
  0xf9095ed8dbce2af3U, 0xecf2fed7e64732beU, 0x27d334d90dfb33e3U, 0x94e2dbddf33d08daU,
  0xdc0ae5edbf0b0309U, 0xd3fe03fd99f6d2ddU, 0xf7f62d21a4b40a2cU, 0xf0fa1ae728ef03feU,
  0xc91005e932ff1f0dU, 0xf722f30a2ee603e9U, 0xc6e509d30d53eb3eU, 0x181ae9e0f0f5f8e9U,
  0x34eed7f8dd2f05f3U, 0x2608e3172ff1f402U, 0xde12ff1b13fffac8U, 0x839e452edd00213U,
  0xd9f7e31f034bf41cU, 0xffe4d5cbfc26de1bU, 0x1d0acc00c57fe5e2U, 0x17ff070ddf22c9f7U,
  0x1efaea0f0815f6ffU, 0xde131cfaf920e3fcU, 0x3912de1209cf03feU, 0xfd06e50521080a01U,
  0xf4fc08e9dbd815f2U, 0x25f7261eeb04cec4U, 0xd519be26dcc30138U, 0x1a2102e9d9dbfc2aU,
  0xcd2410eddfe2c50fU, 0x4b37f009f2f4f522U, 0x4ced0dcbfb18c3d4U, 0x81a122d56b0fbd6U,
  0xea0cb1ddedf75d6bU, 0xd1440fe2d7dce20eU, 0xc5eb1bacf52906f9U, 0x6f013fb0b02e805U,
  0x51ffb8caf04fa721U, 0x15210c177ffbeeecU, 0xee03e9fdca0ad1edU, 0xebfa1ae5230fb92cU,
  0x4e213f3e839f1eeU, 0xd2fdeee714eed3feU, 0x36f8c0ebeb57e616U, 0x112fccd7f0f10ebU,
  0x281604f5ddf0d23eU, 0xe2be9b0c1af14314U, 0xe2242810d4b009aaU, 0xe1e40dc7a6e592cdU,
  0xd22e33060aefd61bU, 0x30ff57092f32fafbU, 0xb355e6f5c00a16e9U, 0x4fddcbc61bcd27ebU,
  0x4f35310b2636a40cU, 0xdb43e20a9ac7dcfbU, 0x11020ae57afb5bd5U, 0xff1a0223ccf0db29U,
  0xf60dc206fe1df70dU, 0xb11be160831e41bU, 0xfdd9f400112dc1f1U, 0x223918e330ec1338U,
  0x2316c4e5060dceeeU, 0x14d706360bb82ae7U, 0xfd0f2182e3a1902U, 0xe1bb4f391d20fc4bU,
  0x14fd063dca46f022U, 0xe75dcd11e71e1f3bU, 0xfa2ab1fa024bff3cU, 0xe9af1efd19241cdeU,
  0x54d54911ef14b5dfU, 0xef44e1ed9271f11U, 0xcb0bb436cae6d9c3U, 0xfa292622f55c16f2U,
  0x419137f3a17d7deU, 0x21ec010ef0d20b29U, 0xb09da1cdcf8e9cfU, 0x45f402ecf09cf7ddU,
  0x32cad7eeec0306U, 0x4016df4ffa9e0fd1U, 0x2261221029cb56f2U, 0xff7cfd5f1cbd8f6U,
  0x15213cea0fb725U, 0xdffd13f7feeecc00U, 0xc2140cdcfbe5ebf6U, 0xf9e3d9fced0dfae2U,
  0x2011fa03051b1916U, 0x8c6f900191ee3f5U, 0x2cf90ec54637b724U, 0xf6f17fe6460222f0U,
  0xcb2943c31acfef0eU, 0xd85d14f6f8dcd203U, 0xee1a539cfff8201bU, 0x2f15e3140a19ea0aU,
  0x1ffa0313685ae0d6U, 0xf068e3e5efd747e0U, 0xfdff36e037f600d7U, 0xf726fdcef2f8e6f4U,
  0x13ff02f9ef1dfce4U, 0xcf1cc022170edd20U, 0x16be37eac4c007a9U, 0xf4b910210df28163U,
  0xead5c7f52573fed7U, 0x2ce866392c382232U, 0x141ea514befbc9ffU, 0x2c17c90289e6511eU,
  0x6380437deb864f4U, 0x1de40ad4e53ce0d8U, 0xf3e6eb2715c1fa5dU, 0x271f46314b13d9U,
  0xf5ead512afc83c18U, 0x4d2dddd59bb60d2aU, 0xda552dfd45a2e5ffU, 0x66bc27e0dee610ceU,
  0x2914b20440f9e852U, 0x54e620c515f144e3U, 0xcfc9edfc92013225U, 0xdf15e7130708f7d1U,
  0x1b1d0b11f3ed1f12U, 0xcb31080f08e815eeU, 0x3013f50fec2d160dU, 0xcc1d412203ee66dcU,
  0xfd271801f1ea3abbU, 0xe3261a2419f51f24U, 0xff0fc2fbdbfd1119U, 0xf041f10a09fd7fffU,
  0xd4ff0bdce0de023aU, 0xda2ee4e308c1450bU, 0xccee11f83efd2204U, 0xef560c083fcc3f45U,
  0xf127e5ebef37e8d7U, 0x240617151215561eU, 0xd60c0aefeaf7f01dU, 0x2d1bf303e0f95237U,
  0xe1ea2be873ff0722U, 0x18140c0f530409ebU, 0x1ce730110414efb8U, 0xe426d90310eb3820U,
  0x2bc00af0fa03c6faU, 0xd906c2f3d204132cU, 0xd7b1fdf50e0ff82aU, 0x5ffd509e61ed126U,
  0xe31b1bfd21dd03cdU, 0xfc10c8f5e71900eeU, 0xde17e23c0dcf22deU, 0x3df901fc5c0f08daU,
  0xc35811fe9194c2aU, 0xd511db11b9cdd332U, 0xf40735e71cf90ac9U, 0xf0eb2ae51ac6d2eaU,
  0xdff632c7030c2030U, 0x1fe7ed161dcdea02U, 0x22e9def5fc340f14U, 0xeceececbd4f2c60bU,
  0x161e0a20ddef2ff1U, 0x3fcf7ead418dbfbU, 0xcdef0722d0e3ee01U, 0x2eefbececfbeac9U,
  0x510fd37fd16490fU, 0xdd0cf8bedbf2e3f0U, 0xebf0261a32d11d03U, 0xc8ea39111068fed4U,
  0xf8e637cafa8109f4U, 0xfd2f2714fcea0305U, 0xc02244c8de8c14f2U, 0x1dd27cb2c1303eeU,
  0x171dfaffe2d52b2eU, 0xcdb448d526d21ff0U, 0x760b1be644dbc8fdU, 0xe0f74afa014d16faU,
  0xd9313ad1fee7c331U, 0xebd3b4c5a7f0b5e6U, 0xabe5220fe2205f15U, 0xc9eda71af702930cU,
  0xaf102b171305d31fU, 0xfd27e5efe00cebfeU, 0x35f69b3036e5fff5U, 0xc31fe33c05fedc01U,
  0xf04f2f1a47d344f8U, 0xd17fe424ef00f4d7U, 0xdc6435ee15e75ff7U, 0xfef00cf1fee9fdfaU,
  0xf7741defd246260cU, 0xfce6f11b39ecc415U, 0x37f1ae0447e803c0U, 0xed38ac00ee18fc02U,
  0xfb011d0424e1effbU, 0xcf039816f13f03f3U, 0xdddff7091fcbe2edU, 0xfffffed4000009deU,
  0x1088fffffcfeU, 0xfffffc010000095cU, 0xbce00000773U, 0xfffff6cfffffff53U,
  0xffffff95fffffc41U, 0x690fffff091U, 0x39c000006d0U, 0x1ad9c5b5c20a11eaU,
  0xeb07152eeac5d739U, 0x20c1501cc20dc0bU, 0xe1ff2131e9050defU, 0xe7e5ec4007f1b0faU,
  0xcc9ec4edff241f1U, 0x2d44c7290d38b4e8U, 0x881ef01abb70bceU, 0xfd06f6303921fe0aU,
  0x114f8f8c6020ffeU, 0x20ef2e0f9fe28ffU, 0x23c80a05fa20fa01U, 0xd91fe5022417d21bU,
  0x2dc9d1f8ffb6ecebU, 0xb5ca7f18dc36090cU, 0x2fed518e538e6f7U, 0x6f4e85ffb7fc720U,
  0xd227e537d4f127c5U, 0x5aca050240ef0238U, 0xf52e1732e7094f22U, 0x18fbe20cfab35324U,
  0xff380af20f154f26U, 0xc9e792fb00e3c4f3U, 0xbfe92ac41711f43fU, 0xf41bee132bfa13dfU,
  0x8d31716da3164d6U, 0x2f041c1d10fa243dU, 0xf90b122720e41be1U, 0x332cf53919dceae6U,
  0x1efe1719d8f5efe4U, 0xf814c21af47f0694U, 0x7c6f0cdaef4c63aU, 0x150921de4029e6bcU,
  0xfa350b1d07322c1dU, 0x182ae8da0b223751U, 0xf2d007ecf3f720f8U, 0xee18ceea3e083620U,
  0xf4c3d7f720b6fd11U, 0x98adec2a15e657ecU, 0xd7f16f0ee4bb0eeU, 0x5b1eb9aa4b032975U,
  0xcdf8cde8d460f7efU, 0x46244c1b42abac2U, 0xdde6ea67f511e610U, 0xfc4a0b2fc23d9fe7U,
  0x2bebf8e710160efbU, 0x2a261268f374557cU, 0x29388112ecf38ebeU, 0x6340c081d90d2dcfU,
  0xedc2083225f6eaddU, 0x2f282de6e70bdff5U, 0xe0ed052cfdfffae5U, 0x1ff065a8d3467408U,
  0xdaccaf162e272c34U, 0xd277d785d1eb04e8U, 0x2ce5d6ffb74af116U, 0x8a24f0e9e62081adU,
  0x230d3db989064d17U, 0x1dcfe002c29eff5U, 0xeacf3bfb71dfea9U, 0xde0b15c6f541c7fcU,
  0xfea9f1e80012da07U, 0xf902e0b1b6eee057U, 0xecd4f4fe240aed01U, 0xfcdf97c33a2d34faU,
  0x394ce4e2f7d0d811U, 0xacaaf33a59ecedffU, 0xa13cd78128ebe342U, 0xa0c7f829ce45c5dcU,
  0x3beb2fce2aa20d35U, 0xe12b1221c63c1d98U, 0x54c7e7f1fa18dcf5U, 0xd19a5bcb5cf6dddbU,
  0xdb4efeb9c53fc2d8U, 0xca2d37d8fce836f1U, 0xf6f2ecfc031ec70fU, 0xa5fbfa09df17ef0fU,
  0x3112d029f44818dbU, 0x584cd67fd61662d7U, 0x2ccd05aadc4fd12eU, 0xfd83f010d06ed64U,
  0x13261d0dc73ce64cU, 0x720df1c7c4e73a12U, 0xe4bcfd41ec0212abU, 0x2433e7fcf481f73aU,
  0xd3d30b29e7ea1afaU, 0xfde2cce4bff2d1e2U, 0xeb00dc0aeffbc734U, 0xf1d4e607f8177f0aU,
  0xc1d7f81326f8fde4U, 0xcd6dbfe04e8e714U, 0xe317101a13dcf007U, 0x1216edd61cf70402U,
  0xe413140b0bfd05f1U, 0x1219f2fa02fd1907U, 0xdcdeec1dfaf90f0aU, 0xdd15e85cc5c10540U,
  0xc836c6e9dfe91de6U, 0xb1c2bfe80a1dc1d9U, 0x1cf0bba6dfe30743U, 0x1cfbe0b3e5efd8dcU,
  0x17bd53c2e6b0bbdbU, 0x18000fe255f6cdcbU, 0x8107c5c0eee925U, 0xf3e501d0fd4c06e2U,
  0x4d274c02e253bd24U, 0x3db18e8630e03e2U, 0x9e90103160c0efdU, 0xbd89de077fedb709U,
  0x616cfc7fc5333e8U, 0x3b0a303226f1c143U, 0x620edf96c3f2c7f1U, 0x2e6e649e63229d2U,
  0x20dfed14eff42b1cU, 0xfa234ee7d519cd15U, 0x19c5046ffbf9e4f9U, 0x1f728c9d4fad312U,
  0x2591eb47fc0fb62dU, 0xfddadcc1df190f15U, 0x21ed4d2a7f12ff12U, 0x2018dedf0f0f1108U,
  0x32e71ed94db2dcefU, 0xe29f0e81de7afceU, 0xb7eec32c1cf1a804U, 0xdf0cf610c81cabeeU,
  0xdfcdf0e41ee2aef9U, 0x6011214a064be504U, 0xfff8d41fcb2181c5U, 0x2feb0bfbe8cdb955U,
  0xfc4dd372a8063b09U, 0x12d4e2eade07ed96U, 0x49f9e0d1d90df210U, 0xe61b31e1aaeec8f1U,
  0x31bc37aefe0ad13eU, 0xc8d126bfa420f76bU, 0x2fd81028f0f73c7fU, 0xb2f2e94d296dbb01U,
  0x22e0fdccd29212aaU, 0x43f5e3c518fa26f6U, 0x2ff05ed06dba84fU, 0xebc31d27f6deeeeaU,
  0xd0e9df155adbc5cbU, 0xb64ef10a46f7eea2U, 0xd1b981979c203a46U, 0x19c717e009db26acU,
  0x339a4d9d10ff9ee3U, 0xb907db2d23c9f4feU, 0xed2bf3a7023e08beU, 0x1305fe16f3290f2bU,
  0xf03586e38ac33e7fU, 0x9ec9e1ebe723bbffU, 0x1cd31e4be5042b77U, 0xe18f4c9d6c9e9fdU,
  0xc69eb8ca19e12efaU, 0x3c1c51faf6eafca2U, 0xfdc1605d7dcd128U, 0x11f4e6ffea071c81U,
  0x10524ff83ff0dd01U, 0xfdd6f1fddfc7d3b4U, 0x1dc600df153078f6U, 0xdc252e0ecac713c9U,
  0xa92422655f442f35U, 0xe904e001b4d521f4U, 0xdd091309c2d7edd8U, 0x140efe25c60af4ebU,
  0x805bce0b548ffdcU, 0xcad545ffcd20a404U, 0xfee481a2abea1bc4U, 0xd2eedcd80f1c34f6U,
  0x7fac2aa9e304e82cU, 0xf82112601fffd403U, 0x2950e0f551f9f0e5U, 0xf4f8230d6019baf5U,
  0x1a1617b70e2be7faU, 0xc70431c93f8f110fU, 0xe4ff28e30fe508fcU, 0xf3cd9715f5a72df8U,
  0x600edcd7108ad617U, 0x19d6151c8c3df00eU, 0x557cdd2effa84a6U, 0xbb24bb6d610f963U,
  0xbe78187cdcbb3a0U, 0xdef004d8df000ebdU, 0xfec052bcef0230deU, 0xd30af4f8d6120efbU,
  0x2227261b071bd438U, 0xebd50914e3f3fe2eU, 0xdf94725f514fbd8U, 0xd709f70bbdeaf510U,
  0xf91108f728da0be6U, 0xdc5f9cfbf01a441aU, 0xee037fb10bc7263bU, 0xda2312ce44f443a7U,
  0x3dff1d8acf055dfcU, 0xe51a26e3d5c122ecU, 0x36bde7fbff08d606U, 0x2cd2fad5c6a9dbf1U,
  0x21f9eed0d1df44c3U, 0x6d5dc9df01fd3ae8U, 0xf810d4baa91e617U, 0xdef4e2e4c7ed0ac9U,
  0x6fef301f1d1db09U, 0xfde7edc90ff5ee1bU, 0xb1274ed1c5cb453fU, 0xc708ae9854401ed4U,
  0xe5db101d0ed8121cU, 0x48df197fd3dec9ddU, 0x66d902572e3be1c8U, 0x80dfc1df2021002U,
  0x24f145cb0a0ef815U, 0xfc1d9f3101d4bb1aU, 0x134ad73632f91b37U, 0xccdc5c2bbabefb4dU,
  0xf211d5f24a81c5f7U, 0x39eb3afac008334bU, 0xecd5f7b0fb7bc205U, 0x2ac0a54f7de16d4U,
  0x621032fc4493919U, 0x190ad9fc2a73f120U, 0x78defee5f5f40ed3U, 0x3f4d0bc3c2df6d3U,
  0x5129de0aeef727ecU, 0x8c7fcdc8f5c53ee7U, 0xf21f6e4f0ab2f07U, 0xc7fc3e407e14affU,
  0xbd35f82cfd22489fU, 0xe8c90903076c10fbU, 0xc00d02b9150a117dU, 0x9e16cdec0e22dabdU,
  0xac2020e9d92a1e37U, 0x8440f7ef247607eU, 0x723cf4d3c6dcda03U, 0xd2674e05eff6e034U,
  0x8ed4efaf6dcf7f1U, 0xf0f08cf39f0f226U, 0x27f54512f3110501U, 0xff010f00eae9fe38U,
  0x10b9f2f9cbe5eaddU, 0xc2c7d508ecea4fd3U, 0x68d57f9b19f2b3efU, 0x1404eafefd130be2U,
  0xec39f11ffd102bccU, 0xec0efe29efd1121bU, 0xe6fef1150ae9eff4U, 0xfefa08f8ddf7fee4U,
  0xf9e406fd2e01f2d0U, 0x18dd171f81ece7faU, 0xda99daee13391931U, 0xc63e1011f8e900feU,
  0xf30e36e8023310b7U, 0x5ec27c42dde0dc1U, 0xefd2270fd5ed0513U, 0xc2b2fa0309f70af1U,
  0x11edd835933d1be5U, 0x2617d716a24495beU, 0x51c712d881f427f5U, 0x68400001351U,
  0x105fffffbdfU, 0xfffff7b800000479U, 0x322c00001b0fU, 0xaff0000151eU,
  0xfffffe1a0000175eU, 0x11ee00004176U, 0x1473fffff916U, 0x2ddf00001278U,
  0x1da400000e48U, 0x1c600002a1eU, 0xfffffa6a000042bdU, 0x14200002310U,
  0x19d000000069U, 0x110bffffe8ecU, 0x19bf00001437U, 0xdbf60324f42537c9U,
  0xeaf4e0f8d0fbfaf6U, 0xffb5ccf3b2efcc38U, 0x11d513130906def6U, 0xe4f2bdf9e951fcb9U,
  0xabc20a230adfcea9U, 0x4c5d7d0f9d7fa40U, 0xfbfbda0610f0eccbU, 0xd315c4ccf01fbaf6U,
  0xafc201fe1512dddaU, 0xe1e703c3e2f10f3bU, 0xd301ddf2cfea0be6U, 0xfe3dee5ec294bd2U,
  0x161b0713c402e802U, 0xfec5dee2b54ef225U, 0xddea03d5ec151d01U, 0xfd0797ed1671c5cfU,
  0xc4ebe336c328a6dbU, 0x29b5c9c1d951107fU, 0xc0fac606e9d854f7U, 0x3027df224efef7e5U,
  0xe9fcd51fdd34edebU, 0xe7aac0d21d4f1264U, 0xc728fc0593ea151bU, 0x3dac991ee20f8deU,
  0xff121e18adfff80aU, 0xf2c0bfe7da6f300eU, 0x1ad2b7bcd003fe2fU, 0x2b49d6d72734d5b9U,
  0x1d40bdf1a307bca0U, 0xf9bfebadca662c5eU, 0xabc3abd3e617fd0aU, 0x3e2cf14338e608feU,
  0x2dff19d6e4f6fcc6U, 0xeea812c9f8e410f7U, 0xe529f701c12e1434U, 0x71a0ce9afe00fe0U,
  0x181bfde128bc25e3U, 0xd33c08f411feefd0U, 0xf722e1fad447e218U, 0xe0f810eac001d2f2U,
  0x2f02dbe936af10f7U, 0xc51215050c15e4cdU, 0x1c14b8f8a425f7f3U, 0xeb0308cec405d1e5U,
  0x3014ebf547e0f2f6U, 0xc1f61302e8140ac7U, 0x11f7d904bb1f0022U, 0x31070034d7f110d4U,
  0xb3faf28ed616f2dfU, 0x4a15370bd207ba2eU, 0xdde448f05312eb01U, 0x37ef064111e0eb1cU,
  0xc7dc56bef7fffa0cU, 0x4f036dfc0deab3f3U, 0x34f343eb71f50603U, 0x21fefd380ef0b82eU,
  0xcadf75d6fb1ffffeU, 0x7f0f4507ee0be2fcU, 0x28ec52056abfe229U, 0xf5eae2ebfdb8f0e3U,
  0xf1f9abadf40f002aU, 0xe44a0700fde2fbfaU, 0xaffbe107f63d140bU, 0xfac00fffe0e600faU,
  0xe814c0ca1fdcd612U, 0x274c4d0d20cbf0d4U, 0xb924e218fb4438bbU, 0x89ef22baf0cedc21U,
  0xbf6d2db20e9201fU, 0x1c6033170ceffde5U, 0xe7e9cd0f1819ed10U, 0x16ddf6d515e1fd05U,
  0xc20f12703090a09U, 0xf5e6dcc4e7f8f9f6U, 0x106f20104f9e223U, 0x1af70ce511e9f505U,
  0x13e0f700f5ddf422U, 0x2ee19e8fb140ffdU, 0xfbf8f40bfff1f7ebU, 0xf5bdf9f0effeede8U,
  0x70300f908051a25U, 0xdcff7c1160503eeU, 0xe4fe05f4dee1fb1cU, 0x1eb7e5dafdcc12e2U,
  0xf61e38faf0e81534U, 0xef0326daf41220d4U, 0xee0d04f10015fb0eU, 0x1ed0f4cd12d10dfcU,
  0xf9f32fe5fee10f0bU, 0xf11470e9e94638c6U, 0xe307d5f1e71cf7e8U, 0x13acf7da0bd2ff01U,
  0x2fe53ced180f1234U, 0xfc1430d3f7341fd0U, 0xe0e4edf2e8030907U, 0x30dd241cf9eb41f8U,
  0xf01f3adef20c0e2bU, 0xa0d25edef1a090bU, 0xc6020a135b16e50cU, 0x50f62708f0f12409U,
  0x6e96bec03031d2eU, 0x11227f0a0e312806U, 0xdd17ea023529e018U, 0x38ed101721e62707U,
  0x2ef95fec15422b0aU, 0x250922eaf02f0b11U, 0xdbebf00854f8ba4dU, 0x160ef21521eb200eU,
  0xf30658e002216011U, 0xf104dfe5fd0a0e02U, 0x14e72033fb4d0415U, 0x13db15050a4108e8U,
  0xd6f248d3171c4625U, 0xf6061ff0f713f8e5U, 0x1b00f829f84612edU, 0xdfe30df70b3c3203U,
  0xf3d45ad2180ad6f3U, 0xc6fa311f0c31f1e3U, 0xebf7cd1ede2a2cdbU, 0x17e0e7f06704fa19U,
  0xec0458c0fa4c2638U, 0xeaf6ead5eb3514e1U, 0x7e1000f0b29e826U, 0x1099ebf5663bfeffU,
  0xd5fc7fd4013d3639U, 0xf4be05c5002a24ecU, 0x4006051e0b330236U, 0xfadaf4fb134923c0U,
  0xe2dc27eb0723fd26U, 0xc2c226f6150e1cc0U, 0xd621ddeac1341405U, 0x1fcbfbd251cf091eU,
  0x33432e2ea18260cU, 0x5dcd000e8e70202U, 0x31df07df12f32c2cU, 0x239ff704592227f2U,
  0xda08411c0448130cU, 0xecd7cee4dc141cddU, 0x3d0ee9033b1d2431U, 0x1fd7dc25323e21baU,
  0xf5ffce1de038e1eeU, 0xb6c1f603f83020deU, 0xe908d3bad7fa1ff9U, 0xcf1040b141c17f0U,
  0xf809ff142a05df3eU, 0xff4438de0de71aeaU, 0xdef5f1f536fae7f9U, 0x8ee0715211219d4U,
  0xe0ac9f72d33ca2eU, 0x92738dbfacc02ebU, 0xd504c2fd5fd71409U, 0x7072ce11dea3237U,
  0x3339e2030c0b1311U, 0xe305f6e007b5ee08U, 0x1d0203f82cc51cf1U, 0xbe81d0c041e1107U,
  0xe5ffedee040f0631U, 0xf5dc48d11ceb12c7U, 0xe7e30fe9ddecf3f5U, 0x1ad5e8080f1ee8f1U,
  0xf9dbd8f2f8fbfa13U, 0x9e046e50dd219cfU, 0xd7f524d7f5edf9ffU, 0x20e21b0f2618124fU,
  0x380ad01ed028e908U, 0x24e514dd15d6f827U, 0xfce63d0d38c41704U, 0x30e72318e41210eaU,
  0xe61023cdb6e50105U, 0xdfcd3ad5ff1007c3U, 0xe6b0f61da3371be5U, 0x3ff20a1afa1c14dcU,
  0xdcc8f9f2aecbf006U, 0xb2db40d82613fb12U, 0xb9cafcf2b9132fcaU, 0x4fe8021fdc1727efU,
  0xb2e2d5fb8102f406U, 0xfad5e7ddf613e831U, 0xd9ba1e0be8d715d5U, 0x210dfd0fedc31b15U,
  0xfc380521040a020fU, 0xda1ef60efdfd27faU, 0xeef017d3fd12dc1fU, 0x3aeee930e7d838f8U,
  0x14480507de31e8f0U, 0xccf5b31fd2d80405U, 0xfbfb1fd1fd17ef12U, 0x3ee4dc08f1e7f313U,
  0xfeffe701dceefe1cU, 0xf102e2f4f3ff1319U, 0x80a1ef00909f217U, 0x181cfa14e7c622eaU,
  0xf343fb11e606ece9U, 0xb111f501f4cd371dU, 0xd5f8f5e9d12ee611U, 0x5a0cebf5e5e045ddU,
  0x67f0bffe731f1ddU, 0xcbf8db08d4a80c19U, 0xe81a18c505330c10U, 0x1600c7ddebf4f71cU,
  0xf51ae115f612ec03U, 0xcfe3f6fef2dc1905U, 0xf50a08ccedfb0a46U, 0x922111d22f71600U,
  0xb200c00e51e08eaU, 0xe309f608d5ed29f5U, 0xcbe4040ebd0aca1cU, 0x42ee041401ec3cedU,
  0xf1613feffa3126edU, 0xdddcdd19d3e31904U, 0x181811fdfe091035U, 0x1608f7f82c30fd24U,
  0xecf1fe2618f91005U, 0xfcc9eb13f9e9fb07U, 0x2e361810f4e91742U, 0xe9c1fbed0df009eeU,
  0xefd81c06e7de3100U, 0x10ebe5cbe7f802d8U, 0xf5cb0525ff05fcf8U, 0x9e205d61ec1dde7U,
  0xfbecc1f80b122aefU, 0xd3fceaf3e013ffe6U, 0xe10eefdb1ec9f633U, 0x2e6f41f2cf908e9U,
  0x10fc14d90b1b021fU, 0xbed101e2eafd20c4U, 0xf0fbf124f5def895U, 0xdbf0f4f7f0f2f719U,
  0xf1fafbfbd0c65a08U, 0xfee3f3b5f1e212f6U, 0x4dba0a0bf9fc0af7U, 0xf1f4cdbbe9b5cbdbU,
  0xe2fa2ed232914c4U, 0xbafde8e6dd2802feU, 0xce1be9b2eec2ab79U, 0x1ceddffb3227e6faU,
  0xf52a15d04c17f5f8U, 0xe70e1d05e90e29b0U, 0xe135f83a0ee7edc7U, 0xd420d4e5e7eadf30U,
  0xb1bf7e9dff80fe6U, 0x13e8c2c7ddbf2de6U, 0x4ed105fcef12121eU, 0xf421ebd805b7cdfeU,
  0x2e6481b9251ce1dfU, 0xf208e2e4d9e5f4f5U, 0xfc0ef2c0f6d3f16dU, 0xcfaeb03183becf2U,
  0x2a2616dd600ddef2U, 0xd52ddcf209f228beU, 0xec3ad030ef1b13c7U, 0x1b0004c3f0c1e5fdU,
  0xdef5f50de8c50012U, 0xfc190306f9e01904U, 0xefffe6e906e1f9f5U, 0x251218f204e9eb02U,
  0xe6f7e30cf0c71c20U, 0x2c06e9f9f1bd08f0U, 0x1f3031c22c90ff1U, 0x11f405eae51afafeU,
  0xfae9110105f7e630U, 0xf03f2e6f7f509f0U, 0x30bd80d0bee1cd3U, 0x2e23e00818d7d2e9U,
  0xccf2ee23baf20bedU, 0xf0030de5faea0fdeU, 0xd6c70ae324beeb04U, 0x5a2028220aee19d8U,
  0xe31e2a20c00127f1U, 0x1ffc07dff9cbffe8U, 0x10ca2ff163be08e8U, 0x7f011700042920d6U,
  0xe9e1330ad903000dU, 0xfbeae6f404dc16eaU, 0xd0ede2137d729ceU, 0x1012faf6fe0eeb08U,
  0x3e0e844fae5f0faU, 0xd93712f30c0a1ce5U, 0xccd8edeefcf3d315U, 0x4cf22ef8150e2719U,
  0x92c0c1afcf40ffeU, 0x2420fdfffbcaf7e0U, 0xf1ca46fd08faf003U, 0x69e310f4f1242c08U,
  0x10140ad91527e60eU, 0xe01dfa1a24e616f0U, 0xd72eebd9e70e10e9U, 0x421df1fc10eff113U,
  0xf409ddf9d907ddfcU, 0x62c0beeeb130220U, 0xfae60de423d2ee0fU, 0x2f4c506e801def7U,
  0xf6e9ee1cdb28ecfaU, 0x3c0f1ee0f90e0a08U, 0xec2efbfdc90d42U, 0x24f6e0ea1df4f52cU,
  0xef10dd12f9091115U, 0x57f202c2e2e514faU, 0x1de437f60fb91f28U, 0xfdee8efe6f1f004U,
  0xee09e61deafde302U, 0x1127050d30090df0U, 0xefe421ea02f203dcU, 0xdbe0ea060cd71bU,
  0x6dfcd0d0eefea0dU, 0x315f0fb210410d6U, 0xfdfe20fbe1fbed1bU, 0x6bdfacb0907e32fU,
  0x3413bc08fe0fed2bU, 0x240efde30e16ec02U, 0xd2e31bc6d3d8ed3eU, 0x18e4e1d62509d7d9U,
  0xf51d322aed2df804U, 0xfdf5f2340605040cU, 0x110b121f1522fd02U, 0x361504fbf0f20ee1U,
  0x2dea3712eee522fdU, 0xe501fb231d0802f1U, 0x2cf94210e45afef9U, 0x1a111f1206e324f8U,
  0x5cf04bfee3dc4a2fU, 0xb7f1ea54dd14d1fbU, 0x49da7f39d13ff718U, 0x25f606f5f1180aefU,
  0x110e2337c4e80117U, 0x217f90a11de2312U, 0xf1c0abb1e0cfac4U, 0x724f9eddfd71a0cU,
  0x1c032c3a0cda16feU, 0x1a3e29ec0e1225d6U, 0x3425f8cb3e0dd2f9U, 0xa001cff0eff2609U,
  0x12e5522a0ce11a3bU, 0x64b2607222d0bf4U, 0x3f27ee181d09e60eU, 0xb3fb1f321929f138U,
  0xfe3233506e80738U, 0x28de0ecbfeec0fd2U, 0xeccefafc34e5f3bbU, 0xa108e113015fcf41U,
  0x1bec492312ac0a49U, 0x6c0236c6210506cfU, 0x14e813e27ad9e2eaU, 0x81fc0c343b5fda3aU,
  0xea202010c4104aU, 0x50ff2ac92a1a021cU, 0x20ff122635d126bcU, 0xd803101a172ade04U,
  0xfcccf319faebfd20U, 0x24ea050f12eb01d4U, 0xdacb2ff400dadacdU, 0xeceaf537e44df712U,
  0xf8a3d227d6a40519U, 0x4f0429df3504e6faU, 0xbacb3ce238cbd3f9U, 0xdfd91340f16afd1dU,
  0xf9bae4f6bde3fd57U, 0x55f5fcd94026cc28U, 0xd5f729fb0bca09beU, 0x231cdd1447f2f8dcU,
  0xf109cd24cc1dc30dU, 0xe52d39e9f91a2146U, 0xc6f9fa16eae3e5f4U, 0xfcfc0b0c231a08bcU,
  0xcf04fd040925270aU, 0x353407e415e1f441U, 0xd2fa1e6e4621fbedU, 0xd319efe7fdfdcafdU,
  0xd8ee1fe7280822c4U, 0xd9eaf034fafc1904U, 0xe104fcf226c90e38U, 0xd02e814150509c6U,
  0x82948edd6f60e12U, 0x14323f01b1be412U, 0xcfb371c1020fd1aU, 0xc2dc0fee1429eae0U,
  0xf04f22f3223242deU, 0x5a14e3ec2fd0f750U, 0x192d59324620f4e5U, 0xf011b998e0e3afffU,
  0xd53ec4f6584dc2baU, 0xe107ce3e52e4292cU, 0xbd54c7b314e10c0bU, 0xfbfd0e2e230b3fe0U,
  0x2c396dcc0eff1806U, 0x3a3b03eafe1403fcU, 0x13df3c2c250f2705U, 0xdbeb53fd2f341f4cU,
  0x2c5b51f02f296ce2U, 0x6f2ae2e64cd6f620U, 0x512a2852282efff5U, 0x230adda5d6e2bc26U,
  0xd5428c094458fc9aU, 0xe80ce3fa71003421U, 0xc646c481e2d5c952U, 0xf608c8bd0adfb8d5U,
  0xc932a02bfceedadbU, 0x90bd8d210c221fdU, 0xfa0112cf09e9c9f1U, 0xf8121c0c190b3104U,
  0x3ebaecf907f8362bU, 0xd51228b7ffb912bcU, 0xd6031efd14502726U, 0xbd183a0fe7223d05U,
  0x51ce3d000f101829U, 0xccb526d5060405d7U, 0xec0dde05fb303dfcU, 0xd9fdc4b660f0b9d4U,
  0xcc3b88492641c9e2U, 0x718ecf510fdf515U, 0xeb1d06e00795c011U, 0xf25f01161d2203d0U,
  0x2c3e1fe52bfa2e04U, 0xf6211b9de8ccfcc2U, 0xc120b6180c5bff1cU, 0xed553b1d052e3cafU,
  0x7fd95e04f7054127U, 0xd0f320f30023ca10U, 0x1605ce1c236b44fcU, 0xadf6cec71ef4afdfU,
  0xe022a93f372bdddeU, 0x81502c82201fafeU, 0xb80c00f3f2c5f40aU, 0xf029eaf3f220dcf3U,
  0x26ff110245fe12fdU, 0x234b02def8e706edU, 0xccfdca041246f4ebU, 0x1490afa24310bc8U,
  0x4cba59f506f8fbd1U, 0x1b0ef4fff8d7e03dU, 0x709bc3f4e5911b7U, 0xfc09f3fff2fb2ee9U,
  0xe71b08c7d6cee9f8U, 0xfdd8f502ee13bebeU, 0x2bc51bed15ef16c8U, 0xeaf713d713f9091bU,
  0xef2fecdd8dbf8eaU, 0xebf03316ef33edc0U, 0x1bcef8f3bbdedf04U, 0xe1f5eef7202df8ccU,
  0x5af2b1bec3ff6f0U, 0xe5c634ed25301002U, 0x1103f1ebfee6e41eU, 0xdf03f8f714e8140dU,
  0xf1202efdbd1c127U, 0xf5def917f13cdfaeU, 0xf2df00f911fa24c6U, 0xe8f10fb922dfdd27U,
  0x1700e0b3d52306dbU, 0xfe32216ea69e1b0U, 0xffbf0b8e3daec09U, 0xaffcf51c7f400b08U,
  0x25f62c08fb7206d5U, 0x37c104092d37f9fcU, 0x233de0f754d5df3aU, 0xc6ecd1001505fff8U,
  0x19ede6f7e5dbe412U, 0xf7f5d11d0b1cfbaeU, 0xfb00080ee20728c1U, 0xd7d5e4b4fdcadf20U,
  0x1402d6cad80be7f6U, 0xeafcf60a0c32f2beU, 0xe615f5bbd60908e7U, 0xd4ccf1256e2919c3U,
  0x16fd1af6f66005b1U, 0xffeef6ef382bf906U, 0xb2f430ce2e20325U, 0xe002e52a232becd7U,
  0xc5da0cf10508f4f4U, 0xcf627ebe7dffad5U, 0xfcf210fe2216bee9U, 0xed0cddd33702a1d7U,
  0xd8d70fd9f9f9ef0eU, 0x16f639f900e509c4U, 0x2af4d8f124eccdeaU, 0xca0edbb916dcaae8U,
  0xcddd12d0dfc30e13U, 0x111043b801d5f5c7U, 0xcec18ea31dcce02U, 0xd30519fa5c2b1033U,
  0xf3f2d5e22c51c2c6U, 0x2ccff02cd9e8d8f6U, 0x29ecef27f224ca14U, 0xb4461bec4ff9b456U,
  0xf00d49a2449f9bdU, 0x25c6d56f0018d4ddU, 0x68050e27e9bcdf34U, 0xa04c35d35cfed00eU,
  0xed09d4a41ef40dd0U, 0xad1172001ebd1f0U, 0x3e33fe28e3f6ee28U, 0x13110175125131cU,
  0xd0c9dce26100adbU, 0x28d9d421fd09ffe8U, 0x1e1327160404e20dU, 0xe350030f2f01f95dU,
  0x2730aab02f5c0dc6U, 0x2cb9d77f05f3e9deU, 0x520a270cc0b8d408U, 0xd87f2bc904e4cf4bU,
  0x1c2cbcc3391a30ceU, 0xf1d7121ff52efed7U, 0x37370212d7fcdb29U, 0xe3e817ae0203090dU,
  0x50ac6f3c9f3d70aU, 0xeadeee08fddaf216U, 0x7dfe6e90ed3eb06U, 0xf4f221d7ea094626U,
  0x1321fe29ca08df02U, 0xccc2d654fad3d352U, 0x2afdf2ed1cb1eb21U, 0xe41ef7d2c61c0d02U,
  0xcfe1c2ac41dcfeeU, 0xcac5bf69dac7f24cU, 0x2f5fcfe305b9c9ebU, 0xe1ebf4f806e9dbf9U,
  0xea08b8cdcbe4ff26U, 0xdcdb1af50812f0f4U, 0xfde8c41ece07f4f3U, 0xf643f415f21422e6U,
  0xf42bd8e8db0af7f0U, 0xe4acb274030fe418U, 0x6a4a110ee2c4f204U, 0x9f2dfde1e519d6d7U,
  0xdeaf3010c0916dfU, 0xcdd2fd4f20fae111U, 0x3e4f1533a3dcefedU, 0x12280f0d42f3f3d5U,
  0x1b1494f8d5ef2af9U, 0xf1bf20e313e1ecf5U, 0xf5f6fd33811be1e8U, 0x34a3e1f1c112ab8U,
  0x3024dbc6c4fc2bbcU, 0x3890d159fb07d2f8U, 0x6e19517d9012f2c6U, 0xc169370c353df1c2U,
  0x2d07f2eadf1341cdU, 0xad067ceaffe2fcU, 0x702849778211c9dbU, 0xe4cdeb1d0e38ed58U,
  0xf350cba0509030fU, 0x3cfb352510e200d7U, 0xefef9fb23ff3212U, 0xcbe0f51f3a2bf05aU,
  0x125a1bbe170b3218U, 0x26ed280c2313deddU, 0x2eee01062de92921U, 0xc1e605121ee2220fU,
  0xde3233ce3b24f80fU, 0x4212284437231dffU, 0x190c0b3e61ea13fdU, 0xd2ae07370131de3dU,
  0xe31c359e1eff0e1fU, 0x5d144602ef04fac0U, 0xff2ee0e310af90cU, 0x92b6dc2e4041e172U,
  0xef433cea722129f2U, 0x72fe0e0b18e6d4ebU, 0x4bf9063662f10822U, 0x9ffa184514fcf951U,
  0xda4e3ac97f2c07d5U, 0x2c19ff30e8e804d1U, 0x2509f4103cf6f325U, 0xe7b43013082cf629U,
  0xd7fa2ab71df44b2dU, 0x66fc4005d00fd5f2U, 0xd5e3d21a2a112007U, 0xb1d5de073741bb52U,
  0xcd0c0bc9501429feU, 0x5af9440df5f6eacfU, 0xf10efafc05e0391eU, 0xc0f9f0e62d16be38U,
  0xd9f306e86a14eabcU, 0x722cf834b716c904U, 0xeff6e8f44014e90eU, 0x17070ce3f4f539f8U,
  0xfe00ea1526ca1621U, 0xc613e7070debfc13U, 0x18f6f5f3cfe7eaf7U, 0x20c717f40f0e2318U,
  0xf8da0c0a1dca012fU, 0xf0f9d91c1231e835U, 0x3c130e19e8a6f217U, 0x1dc91720d61b26fbU,
  0xe9b9171434d80118U, 0xc20fd62af9001f1cU, 0xfbd1e117d3d4e50cU, 0x31f70bd3f7bb040cU,
  0xfb08ef24a13031U, 0xd0e8f22cf8e3f751U, 0x261b0906ec1ad5f8U, 0x47e715e70eb83a09U,
  0xeabd55cd10cc255dU, 0xcd1a0a1dfc160558U, 0x2f1602f5e8f3c2f0U, 0x54ce0c2fd8bb3804U,
  0xfce16bd82bd2fd42U, 0xb30f0b36d6e30d3dU, 0x8d7f717dc04d9c3U, 0xf110411e6ab0311U,
  0x1abaf4f7f1b33b5bU, 0xd3f3ed0bcbece00cU, 0x1c0e393cbd32f9daU, 0x28f728fcf7a83fe2U,
  0x19b150603a62f7fU, 0xb71d1a21f71d002eU, 0xb1a472cb40d30d8U, 0x2fe0271c0bb64dd3U,
  0xaa03e1206d4045dU, 0xae06fd47d7e3eb0aU, 0xe900254696fdfaafU, 0x1ac408ef3405270dU,
  0xfcf0e7ee19f1d521U, 0xd2dec21bf21a26d5U, 0x4f2dce1f6b4f80fU, 0xf1dde71028fc0b0eU,
  0xe6d53de5190e0a11U, 0xfee6d528151824e6U, 0x57f2ecefecd0ef0eU, 0xf7001119f50a04U,
  0xdbf128ca07f0ecf5U, 0xeb02df7a1f0905adU, 0x3cf7efedd1e1e3ccU, 0xffece3f42230d00fU,
  0xcabe0df21bfbe520U, 0xeb0e47131d2927f2U, 0x1239edd1fd220b0cU, 0xb9d2fbfa1feae552U,
  0xd299ebfd29f41a41U, 0xeb431c5922373fcfU, 0x1241f8eed532def3U, 0xca14f8e6f8d8d364U,
  0xdcc820c42bdee702U, 0xeb51257f0258feddU, 0xe2c08efca46cbbbU, 0x16100319f11e03feU,
  0xbbd432d1f70203f9U, 0x27156a2a364b241cU, 0x42b3ade0c60ca1bU, 0xda18092f0a00ea23U,
  0xd2bb19ae17f33323U, 0xee2248454f4c23edU, 0xf6502107ee5dd7f4U, 0xdc300414d9c8fc39U,
  0xd0b857d50ef32df8U, 0x2455533d2c1efa03U, 0x85230dc0048b1f1U, 0xf4c0081d06fe34d5U,
  0xb432bd8c5e6cef5U, 0xf3eff84efd03d8d6U, 0xcd0ff506e814f3e2U, 0xc1be0c4222322017U,
  0x6175edfc2dd1721U, 0xf213280b00021d8dU, 0xf82df5ea0e171eecU, 0xaccd1a35f2ff412eU,
  0xf2243cfc6e80b25U, 0xe30e0945ec0bfcacU, 0x132fe8d90e10e60eU, 0xc9b9f4fc0efc399aU,
  0xdc442e3ae6c9e82eU, 0xdad21e291c0219e1U, 0xd819e0ffbf0b25cfU, 0xd7ff02eee34129f8U,
  0xf82e7a2ffac0081eU, 0xf72b34f5120153beU, 0xf2e5b5f5fc1b31c4U, 0xb1d04ecdfe02511dU,
  0x274d410ecfd81533U, 0xab1520210bf138ebU, 0x20e5cdfddc183cfcU, 0xb2e0e0dded43f7f4U,
  0xc1411f16ffc8c816U, 0x21cc2cf21818f6e1U, 0xefa2de508e73caeU, 0x8afa0dd9f55efb0dU,
  0xf4f6ff5b21abff17U, 0x2fd72ccb2afefbd1U, 0x1ddd17f04acb3be3U, 0x81ea1bd01859ff38U,
  0x1221bc22f9dc024bU, 0x1fd0d3b1362be613U, 0x26e815f707d26917U, 0x17f1ec12f4c1eb33U,
  0xf305fbd40b0a0cedU, 0xe209efedf5e514ebU, 0xf72edefb211f1331U, 0xfcc601350c010af1U,
  0xd42719fdfb12f607U, 0x3f1ecc6e9f4fefaU, 0xe8e5e50833ed1e24U, 0xf5c5c9f90701c10cU,
  0xedb7f514d0f5fc1eU, 0xf8f228c2fe230fe6U, 0xe8f3e705edef131bU, 0x241efefb0fe31808U,
  0x227b906e41c03fbU, 0x1fe02d0f708292bU, 0xf346f3f328faf136U, 0x66c6eb2bd90938c5U,
  0xea5103f0ef2ee90bU, 0xd7fe08d8f7ee2af4U, 0xcf0fd5c125ebf823U, 0x1fcacfc1feeaec0aU,
  0x2ed0f2eeb407e732U, 0x8074ad00a0624ddU, 0xe1fae9c102eb1304U, 0x17fcf1faf8dcd3ffU,
  0xfa20f106e9061c07U, 0xf9dd0fdbea13fb06U, 0xd362609ef13175bU, 0x3fbce708da161ed3U,
  0xc15e0d07d518db26U, 0xf4c0f8c80905fcdbU, 0xe60c00fdf9fd291dU, 0x37d0d3b8e2f7f80cU,
  0x12cf210081c50155U, 0xc6e61fc0041a1ee7U, 0xeaf7e3d4d4d62af1U, 0xdde7faf0f1fee2d8U,
  0x97f82becd0e000deU, 0xffc3e80419bf00eaU, 0x14e2ee1f0ab13bd0U, 0x261fd7e409e5e102U,
  0x96e8f6f5b7be0ddeU, 0xd14cbf534b05839U, 0xce5e9f315f004f2U, 0x4d5e08f4038121ebU,
  0xd4fbbbadeb00f7ddU, 0xec1ae7dc130e0215U, 0xa215bbd6d74ad8e7U, 0xefbcbdefd91ff5d9U,
  0x9101df26241ed4d5U, 0x250cb4dffaed2740U, 0xea2ee0080cf31f06U, 0x2604befd0fdbf705U,
  0x8df3bec33123c3e1U, 0xf60bfed3ffd6028U, 0xb542dbf7d621080fU, 0x9df042db60bf7U,
  0xcee0ecbaf1bff3cdU, 0xf44bd2fb1f4d19eaU, 0xa02f20ae43d23c3U, 0xefac9101424edd7U,
  0xcd3b9be91919ebfaU, 0x341baff745ed4931U, 0xdf5d49ddb52fd024U, 0x2825ae0b100af704U,
  0x890ec19f11f203b7U, 0x294bd018452e3d26U, 0xdf48fd06f81df0f0U, 0xdf2c815f6eb07ddU,
  0x8cd0dbee4dff2a8U, 0x946f21a0122e9d1U, 0x32e6eff6dd1961e3U, 0x2ddefc1438f6dbffU,
  0xd6cd0b0ddad201f8U, 0x5ad6f2e4d2c5f4e8U, 0x1abe2ffa5bdc0ce8U, 0x2aaf151b36fa02f0U,
  0xeaccf4f8d2f9e7e7U, 0x64d7f7e6f4d1f0feU, 0xfeaa1fe253ccf200U, 0xfcdd0b4346130cc8U,
  0xcaeef827cdf4edf8U, 0x67f0f4c9e2eccb28U, 0x5bf1bf246ea0fcbU, 0xbd8101bdae90b49U,
  0x5ad2d7e8e80404f8U, 0xecf9ea34f6f1f3f0U, 0x201dedf3013b2ae6U, 0xfbed031c0a061214U,
  0x6ae4a5cef5e7d00aU, 0xe930d721f1d009ecU, 0xc52ce4f906302afaU, 0xb9fd051704fc07dbU,
  0x7fc6b7f9bcdb0108U, 0xe82df3fccd01ebe0U, 0xdd14e9dae3360ccfU, 0xedef00e3e7f8e709U,
  0x1004e2f10e1f031eU, 0xdecddf45e909ece1U, 0x142ad50b02f138e1U, 0xccf6f7f7e8e8d826U,
  0x43ccf401e20bef0fU, 0xd5bdda18180cf9d6U, 0xb3ceafcf8d018faU, 0xd801daaeefe1bb1aU,
  0x4ecfc6e6b9e9f414U, 0xfff6f72902f822e8U, 0xef0deeeaf9dc0cddU, 0xed3c5752d3d94720U,
  0xc8f519de2ef24017U, 0x320dab4b23b3012aU, 0xe031255000734dbU, 0x3528690decec4a26U,
  0x2ee1fbf519e63948U, 0xfde0fb150ab10750U, 0xd6fdd161e7dd2be4U, 0xfe23a4de3f51f27U,
  0xd9d1060f36c5692cU, 0xe5d3e1e01bf40223U, 0xdfe8ef49b3271859U, 0xe62c38202030f12dU,
  0xf508d60224e6e61aU, 0x212dea3314b00766U, 0xd0f7c233f03ff6e4U, 0xfd1f7e12fa1f252fU,
  0x590b03ed1a02ff11U, 0x50ff1711cde0d75U, 0xc3e7d254de62dafdU, 0xfff86c2d9e27fe46U,
  0x51e5fc2929d62203U, 0xb3180bee16d0f55aU, 0xc7f7cd0fbb7f1706U, 0xdb3ff627b014f8f3U,
  0x1f4e31c20d8ba3aU, 0xd91d143219d1f128U, 0x9dddb3e0e95b0fcaU, 0x1f4c4e2cc7162c02U,
  0x62043a0d25f2ea17U, 0xca154b1b1ac60a4eU, 0x98fba6fa174dd4fcU, 0x2a29100a9a1d2e14U,
  0x4407181e24dffad3U, 0xcc1e16d508e0eb42U, 0x8c00c3e4e82ada0fU, 0xcb0bccba2a08df1dU,
  0x350e810c4723b81cU, 0x8110a211c2c05cfU, 0x538fac9c4f9eeffU, 0xc2fbe3dc2500016bU,
  0x2609a8ea4f52cf4bU, 0x17edc1590c31e3d9U, 0x125d04ccb0eaedeaU, 0x9fd3e5dccdc81771U,
  0x34f3cddc1c29e90aU, 0xf3c4441e27ecd5U, 0x2613f8b8c9e107f7U, 0xee01fe0c143c0708U,
  0xeff5e43b282be9f1U, 0xd80829f8f1f819acU, 0x5fa51e1fc2cde1aU, 0xb6d9e8e7242ffb1eU,
  0xf2e9d70a2447eb14U, 0xb6ece7020529f7b1U, 0x1b3b4fdbbd2c1406U, 0xf6c5d8e3132c010cU,
  0x20feca140756e408U, 0xb1ddf705132d18c3U, 0x1e2552b3de17ef3bU, 0x43c11014413547faU,
  0xe3ab533afc18fc0fU, 0xd63c4d07ae1307f9U, 0x3bc2f8dc284de3f1U, 0x35bdf615391f1fe9U,
  0xbfb222391826192bU, 0xe12c31fcd8eeede2U, 0xedd26c91f45c11bU, 0x28990003364930e3U,
  0xbdbb5d36f2f9eb2dU, 0xd81356f4deed2be5U, 0x12d222f4233ed3f8U, 0x927021f05f0f802U,
  0x30208e0ea04362fU, 0x3b180af306ef0df2U, 0xf20b392b19caf625U, 0x809242f2afafdeeU,
  0xf330fee9ed352e2aU, 0x21211afdf61a09f7U, 0xc110321227e4052aU, 0xf715f1372bfd25c8U,
  0xec1fdcee074f10eaU, 0x370b05e4fe1a2133U, 0xdf1c2610f6030e36U, 0xe0e30e4023df0fecU,
  0xe31528f3e22208efU, 0xe001008dc04f9ffU, 0xea171c2344d70d1dU, 0xe2ff386b1cf641dbU,
  0xe5105cd4e8411a01U, 0x3b100708d8f2ef6cU, 0xe9e3173f7108210fU, 0xdb13366552085449U,
  0x2d2c67e0fc4536e4U, 0x1729f11919f01810U, 0x391509176a2d360dU, 0xefce05d901cf151cU,
  0xdff436fa06012207U, 0xe03959192c0d16eaU, 0xc70caf2df6de43d8U, 0xe5e2133a1fc93700U,
  0xc70a59d128113410U, 0xf35f60251e0d0a03U, 0xbf2fc4145084c2eU, 0xf3e703223cda5330U,
  0xfa2b7fe813cc2bebU, 0xf3491efc4bf132ddU, 0xa01d826480f36fcU, 0xddf6faaddce2f8d6U,
  0xfcfb0305fff5ebc7U, 0xc8e4ee00e908db04U, 0xed20e0f1d4e4eefdU, 0xc7f3e8c1fd06dfc9U,
  0xeaf4f21f1fdceae5U, 0xc8df05cd150b0ef5U, 0xe231c9c4f5eefbf1U, 0xdc1befa50dd304f8U,
  0xe926bc29f2d5c613U, 0xd706f0c511e8f9e0U, 0xf5fbe696e7cc1becU, 0xea0527e60cdffcf3U,
  0xf500ecf71bc91ffbU, 0x1700270018ebe9ffU, 0xd409030a0031d309U, 0xcf4a36fc33ebf224U,
  0x1717f1e628d97fe7U, 0x3e002fcf05f5e5fcU, 0x240cf91cff271a22U, 0x43a2bedebf3f934U,
  0xec37c5e909c3480bU, 0x2f312fdf18dff609U, 0x311813e00005141eU, 0x7331e0e03dc34eeU,
  0xef06f4e9f4db26f9U, 0x4fe160007cce6f4U, 0x18f9251ee9f4edfbU, 0xe361531d28ea0935U,
  0x41f7f5d214aa4fc9U, 0x440217dbf1eac0ffU, 0x22d64154da24fe1eU, 0xff3d220818ddf362U,
  0x21feddd620af3bf7U, 0x562b1600eefadc25U, 0x32f87f38d8f5ec08U, 0x2fdfef00f6ab23f4U,
  0x370f05f4b1f3d82bU, 0xc41dd011f9fbf223U, 0xcaeed6e8f82712bbU, 0x2d0ff1f604980afdU,
  0x1617b611cbb1c3f2U, 0x331e8150e05033aU, 0xe80203ddf43911e6U, 0xde6dcb6de8cd935U,
  0xe25d315b5dac900U, 0x3b0df4e9d9e2d941U, 0xcdd0f6d0122ee811U, 0xb2bbf12ccd118d1U,
  0x24150816d7acd847U, 0xca0fb9f3251f0f18U, 0xca00d7ea02293caeU, 0xfe31daebcfa807b3U,
  0x35e5b619ac82fa66U, 0xb94ff7d4161cef41U, 0x9702cae11353fbe6U, 0x40fcbec2e2a426dfU,
  0x36fe0f5ddaa4ea2fU, 0xd71334cd0b4cef4aU, 0xd107ece1eb5c0ed7U, 0xb743dd170228302fU,
  0x28d525ed2cf5d10fU, 0x491ef40b43f5d02eU, 0x1cd6c1db7fe94baaU, 0xba22dad11c252643U,
  0x2c92171df6e2f439U, 0x4b29fb182c2ace15U, 0x15b9c9f46bd529f6U, 0xf2d1cfa10310e465U,
  0xf2b6501f34fc0730U, 0x4af1381a4042bc17U, 0x72dcc5e526c80212U, 0x24e9fcf4fe571f02U,
  0xfefb160dfd19ecd3U, 0xbe0d46f017e41a07U, 0xf5f2eed510140dfeU, 0xeff5fbfe0d4d0706U,
  0xda0bfcf6ff02edb7U, 0xf000f71d28e8ebe0U, 0x12121ed331d90cf4U, 0x27e104f5f127221dU,
  0x1109f4f1d0f327d2U, 0x2bdcd50406e9fc1aU, 0x180611ed0ace1812U, 0x5d906e8f22e0201U,
  0xe8ef70e3fe0429d1U, 0xf7092d3601ccf10fU, 0x2b09270b2e6b041fU, 0x2d19f1e8b9541e13U,
  0xbe52d6b520f9b6adU, 0xd7faf92b51b922eaU, 0xc94391b21020f6b0U, 0x4b1df6ebbfce06f1U,
  0xf621e9dfdee2f4d4U, 0xdcf2e51d20ee0a45U, 0xd3f7d6cfbbec0502U, 0xe4d016bb0540cce9U,
  0xde0d7f0d023302c0U, 0xfce4ef341edc0a17U, 0x272ce41d00233bfeU, 0x1e0e09efe03610d5U,
  0xad6583040a01d398U, 0xc5e7bc0df0cb2d30U, 0xdf30dcf89b17f0ccU, 0xfd33f8cee4c9f301U,
  0xef4cb8e608ffd0c9U, 0xd4e6ef0febf912ecU, 0xd7f7d2f48a1c10f2U, 0x1420f384d9e2308U,
  0xf417cddef82b0ff1U, 0x817111d112709fbU, 0x22a6ed00101e0fcU, 0x313f0c294ac60b31U,
  0xf62411ebe91718cdU, 0x32f5ee7d24f40929U, 0x523c5fca46e7caf8U, 0xe345f8f02ad7d508U,
  0x2230c2cc0133100cU, 0x40b2f4f0001fbd0U, 0x172825b6ecedbbeeU, 0xfa32e0dc36e1fd34U,
  0xdb51c0ea294bfbe1U, 0xe4f0f30c0a00dff9U, 0xe64b51c8c7e91414U, 0x5e06f7022bba3646U,
  0xcb4eb8ecee72bcc3U, 0x22fed9602db2fa11U, 0xa3c6ca73cbb1f1fU, 0x5023f3eb07d60f57U,
  0x125fa9e7df26f513U, 0xafe8eb24f6dcf2cdU, 0x1de700a9f3c92b38U, 0x13c7cff210e31a2fU,
  0xc92e43eb24efcba7U, 0xfaed01f2edc900c9U, 0xf108e4e220de7204U, 0x23bace0926e74021U,
  0xc64431f7f61edfbdU, 0xdaefe71be2c9fbc2U, 0x2de42cddfddb651fU, 0x7fddedcbfec85318U,
  0x1257cc20dc2216ddU, 0x86db0423a8db06c3U, 0x33d0f5c5f8e0412eU, 0xfe5fef608e13fcdU,
  0xd6339f14f1feea20U, 0xaff2c3ccc008180dU, 0xe609d1ecf4dab632U, 0x15e3eff4d44f1bb7U,
  0xdb0d3b4bd5d7e31fU, 0xb109550e123d20f3U, 0x3cb0c6ce1fe597U, 0x2000eab6fee4da1cU,
  0x150a282605fe21f5U, 0xe21d21dd1c02eb08U, 0xfa25fab0bfeef724U, 0x9bed5fdf7fb37b2U,
  0xaf34c619d710b926U, 0x9c9cc3cdbe11e61bU, 0xdf1bd703df08f2faU, 0x3dbe5f8e74911efU,
  0xa81461590bc3e61aU, 0xcfdf2edb11ee1109U, 0x242bccfedde40bc8U, 0xece2d281daeedefaU,
  0x5ecfe4f12e226f5U, 0xbef1d9e50b22fbffU, 0x2b02e6b89fb9de01U, 0xeffa05eb0dfa248eU,
  0xb159b3d8f4fed65aU, 0xbfbeb4cbfa2bf746U, 0xaa65bbe4f6e50015U, 0xeb0b00e5def91bc2U,
  0xb11b26460dc2f35dU, 0x8aee303620fd3df7U, 0xf840d4f9aaf321c5U, 0xcae5c984f0d0db12U,
  0xd606f66c1eec1005U, 0xb7fad3d2051fe621U, 0x409d6ada59eee1eU, 0xcd03e4100e28e63eU,
  0xeeee0d150f1e0622U, 0xe10204e6fe0331f0U, 0x181117e3ee040f03U, 0x9bab322ff08ec2bU,
  0xb7bc1300fde9dc2cU, 0x32049d10d1741fcU, 0xfd3714d6023808c4U, 0xdde4e13df60f0223U,
  0x5d3e8f6edd8e544U, 0xca1639e3ef0833f7U, 0xe1daefe7ed310b0bU, 0x4909eb09e912c2feU,
  0xc9be3c1606ce18fbU, 0xe5f5febb18e6e4f3U, 0x13d310102632a7faU, 0x2dcdebe7e3eccfb0U,
  0xaad55ce622befa0eU, 0xff1a418f040fd7f7U, 0x7e01922fd59d7c8U, 0x11cec3ffe617dcaaU,
  0xb9ef09e9fbd0cd0dU, 0xd3f5b97ff1914e3U, 0xd4d20c12e33bf308U, 0x1774f9c51be2d321U,
  0x6eba5ea0406f99eU, 0xe8cdd12e1806d403U, 0x6be9e7e6cfb7ad08U, 0xf3683cf74ad6e2b9U,
  0xdfec4defd422d81U, 0x6c6b81f20e2db3aU, 0x48e56322d307b817U, 0xcf5a33fc36030998U,
  0x2944c2c70a450d9cU, 0x26f9f31ceee6dd0fU, 0x163c1a07c426e9dcU, 0xdaddccece91a07f9U,
  0xf8fae31c2201e2f1U, 0xedede2e117e500f4U, 0x20605e7ddfa01f5U, 0xd7dcb11dfb3eeef0U,
  0xd2d6e715f127f0f9U, 0x11cdd0d005e0ec27U, 0x4f806ec14d2ebe1U, 0xd219fc0e0721fcdbU,
  0x904cd07f0f718e8U, 0xf9eabebb01c0d305U, 0xe4bf090c08e4d103U, 0xe70c0df41a5313e6U,
  0xf010072422ff1fe4U, 0xfbdeebecf8f6ee2aU, 0x2e5fb06e34bf80bU, 0x21def91118753de0U,
  0xc2e91d4b052025e3U, 0x4daacef0e0ce67fU, 0x2601130df519f8fcU, 0x3403ef0a003e3ee1U,
  0xf3f9f421d9e619cfU, 0xdceab0f520dffa5eU, 0xf20b1ff1f118f0d3U, 0xee08f4fd1011f9f4U,
  0xfd1a0bcc18ec07dfU, 0x2300f801fce3fc06U, 0xf4dbe7ff0b47d017U, 0x1a0afc012c3c28c2U,
  0x200932db02dbffd4U, 0x1e0e1014fdb8e331U, 0x1b093f1a2740f5f3U, 0x5615e8f6f00939e6U,
  0xd8fc2dc6dcdae9e9U, 0xc80601fd01f01026U, 0xeff5d0d1ff11fecbU, 0x1be1c5deeaecd90aU,
  0x242606dfe3f803e0U, 0xc4f7db0e04d02adfU, 0x161ef5b70d20e81aU, 0x13f1c1e6f5e2ecfdU,
  0x1643e1ee180eed00U, 0xafdb0401071033caU, 0x1b33d6befd16f510U, 0xed5c1ecf8d4efe9U,
  0xa0aefee2934cae1U, 0x81f1f4fae42e0fe4U, 0x1c1bbddee4f30127U, 0x2707f1e30445faf7U,
  0xe00e1cf9e40d09dfU, 0x48f9f702b9e41604U, 0x25efeffb220e05ebU, 0xd0ceed5206ad8f4U,
  0xdd013d0f161403e9U, 0x37eafddbaa07eb0fU, 0x2bf3d9144cf129ecU, 0xf2fef0e12a4fe415U,
  0xf8016712291e0bf7U, 0x120019e4b5fff035U, 0x30e800083ee462dfU, 0x1b023dfe1bea05U,
  0xdbf305cf031423f3U, 0xd11e4ffdefdffd2U, 0x6fd1cd711f9d1e3U, 0xd409ef2dfe56e7ebU,
  0xe4d1ecf63721ff01U, 0x2d3a0de6eae510f1U, 0xc4fa040115dbe301U, 0x82608430640fae8U,
  0xdfcbfbd811151524U, 0x72bf8f3fcfd1bf4U, 0xed0b02f70ceae4e8U, 0x451e1ed11bc7f60cU,
  0xeddc2dcacfdd13ecU, 0xfcdff92ee319e043U, 0x2b2ff7f7230fe0deU, 0x5a18170af2cd4a1cU,
  0xfaf509c1e7d11200U, 0xcaeff31fe00bfd39U, 0x3444eff003eafaeeU, 0x2011f7faeee121e2U,
  0x23fd0cc9efcb0fe4U, 0xd3f31212d030fb13U, 0x11f3e6ebfcf1d008U, 0x5c6243e0d6b9cdffU,
  0xbee6e4f5d3e67fcaU, 0xf6deb01811fed63aU, 0x4e38080ecf06f6faU, 0x94a3df4e7ab1626U,
  0xf9ded7bdfdfd4ae3U, 0xa9ccc656fff3edd3U, 0x6c4dddecc01750fdU, 0xeb60330414de2409U,
  0x340b01d8ecff43e2U, 0xa7c9fa0df40fe108U, 0x6116f320e01d0512U, 0x595614d4d214d122U,
  0x17cafa25c1fa55d1U, 0x6d399fadcead423U, 0x604930100dec1f1aU, 0x121616f8e608f700U,
  0x993ef12b5ee0bd8U, 0x14b8d013c4e3d6dbU, 0x66fc07e624d919e9U, 0x183524171f071a06U,
  0x2dcf171faad82a07U, 0x1d8f9e8d9f4dcd8U, 0x78f704fc3df7f802U, 0xf6f50d0ee4e3feffU,
  0x1620f4090028f107U, 0xf1fd1828e40403cdU, 0xf3f92112e2dff905U, 0x23e912f0f3a812f7U,
  0xfd7fe411fc19fbfdU, 0xf2fc050fe0ebd9dbU, 0x1f839fef7e8ff1bU, 0x18da0afff0cb21d0U,
  0xdd73f106021eea21U, 0x1711f51ded1b030fU, 0xf60d4201080af80aU, 0xebf90d27f6ed14ffU,
  0x50e0bfb0c29f912U, 0xfc1c3036010f14cfU, 0xa1713f60c05dbfbU, 0x11ed19251fd61cddU,
  0xb671b01f7240c05U, 0xf7f6240fe7fffdd7U, 0x7fa25e92914bd23U, 0xef2133d22f00fe2U,
  0xe26026fbf72e2022U, 0x16e91922e71f0cdaU, 0x15e946171d13d713U, 0xecf31213eef328fcU,
  0x6fb06060a29f81dU, 0x5041b32fc230801U, 0xf613f6fafcfcf902U, 0xe8cf0f2007e937f9U,
  0xf7360d1bec310a1bU, 0x5fa2d21cdfa0012U, 0x2eb0cf10afad619U, 0xdeef2b3802de26f6U,
  0x45344e506340e07U, 0x19f2041be90e10e6U, 0xf1e30b240a340a0fU, 0xf6fff8f8f9e5fcf0U,
  0xcd2f11f9edec03fdU, 0x2f8f200feddf2b3U, 0x25f8f4de26df010eU, 0x174a24f3e5c3141cU,
  0xe05acdd308dd0923U, 0xd016d7f406bdf8e7U, 0xed0eecd707d7f825U, 0xdf7dde3002602dcU,
  0xed0ce509f2e8bc23U, 0xdf25021af9dd000aU, 0xf6f5ead405bb18d6U, 0x131a1509ec0109faU,
  0xe91e00fd01e201d5U, 0xf2eafa010e03ffcbU, 0xe900eef12aea1236U, 0x1a7f3fe51fdd0d2dU,
  0xf472c9ea031e00efU, 0xfef1dddceaadd713U, 0xe7f2e0fe3dac2430U, 0x124917fcea2a15d5U,
  0xce3002f90f06cae8U, 0x3b10fceeccfa13U, 0xbcd7e6f04bd33b0bU, 0x382e07d3d5162013U,
  0xfc2ec80415fbfed4U, 0xf8e308f008f4080bU, 0x923e2c9d4e3ee14U, 0x6671ed425fd0831U,
  0xee72b3f3290af9c7U, 0x2bf0d5d8fab5072fU, 0xdf11defebbdf533U, 0x12e1a070c2d1ef8U,
  0xe622ee092a0bcbd0U, 0xbfeeef21bf01826U, 0xc1e210fe11cc1517U, 0xcc0e12011c1c002bU,
  0xf418ffe9ffecff14U, 0xd32ac2282408eef6U, 0x2e00e91230cbe7f4U, 0x9504f7192a1abf21U,
  0xeb04ead4262fe102U, 0xebf1b91c121bb60aU, 0x17d70b47f4bed625U, 0xd197b638db70c1e1U,
  0xb6f6c21afd08fa1dU, 0x2ddbc0e5d42ad912U, 0xedc74635eb961001U, 0xfe4cda38372bee1dU,
  0x2ca2d610de8de5U, 0xcffbeaf7123f04cbU, 0xb900c1f9e1070c19U, 0xcb4d284e48161becU,
  0x5420bc4481323cfU, 0xe3cfb204f70cdafbU, 0xfadc0d5ced030e1dU, 0xd6eb230bf5721ffcU,
  0xc0de8f9fd2852fcU, 0x37f7e5e8f826d611U, 0x2fcc6f1af9d90626U, 0x1249200c5a0cf8f7U,
  0x55881e40312dfd6U, 0xeddf14eb153ae20dU, 0xc9ddabf1da04e602U, 0x27a1d440e34d4c6U,
  0x28340aba35002b90U, 0xcf9f6faf309fbc2U, 0xf2f3f851d8141709U, 0x15081820443d1108U,
  0x1c041ed2d33f42c2U, 0x3c1218b7dbf1c610U, 0x2cc37420228c1405U, 0x40b0ff900c00c15U,
  0xdbecbbdc100b3804U, 0xee05ddf9ebf3e9fcU, 0xa2ac31c2ff94124U, 0x330716e6e997233fU,
  0xe90ddafe1c0a2e23U, 0xdce0c115edd60729U, 0x1e11d3141f9f691cU, 0x2e3309ff06c72c59U,
  0xf23ed29ff151a0eU, 0xf3e3be37f4f0f846U, 0x4fe0052be6c8431aU, 0x18dfece59cdbc814U,
  0xd9e423ff3af127bdU, 0xddfffad30aef08c4U, 0x26f3d1151bf57117U, 0x16dff319c3c0ff15U,
  0x6df3c1516bef2fcU, 0xc7d5fdf6ebee11d0U, 0x33e3d43b0cfc7ffcU, 0x38ec0c2dfcd34005U,
  0x1e102f9f201f7f6U, 0xb4f909ead2f41538U, 0x22bcfa2029f827e4U, 0xddf6d6de0f08b223U,
  0xf8c3e92f56ddece4U, 0x24362ae30cfd0bdcU, 0xeabaef180efde812U, 0xdad4eade0ff2c303U,
  0xedcae7203006e51aU, 0x92238e50407f7e3U, 0xc1c1c614f9fdc4f6U, 0x13cfe2e7edf7e3deU,
  0xdae9bd1dfd16fc55U, 0x12231cdd1600210dU, 0xb909dcfa2302f0ceU, 0xdfd1eaabf9fd08bfU,
  0xd117d7eefa460e0fU, 0x29cfccfee3070c0cU, 0xc932d9d8f6b2c527U, 0xc5bc02f63f6622b6U,
  0xd9e5352cfe37e01cU, 0xe8fefa1600ce030eU, 0xcaf3e7fc58d506dcU, 0x42f4dc0000382902U,
  0xdec94332b8ec1ff4U, 0xc41fddf8d3ec17e9U, 0x14cc10e524f5ef0aU, 0xe9f2f19302d9d9deU,
  0x1e478c07eb7cfcfaU, 0x1bb3c0ebe93208f7U, 0xea39ecd3c1d2b555U, 0xb7c9f4f44b4e33afU,
  0x211e0e333f693009U, 0xdacf10edecebeddeU, 0xe720ebeaf408ee40U, 0x1ffddf063a553eb6U,
  0x35067231fef220cdU, 0xd00afa3efdec26caU, 0x3af2f7f532280903U, 0xfa13dba0f7b6f80bU,
  0x235cce5f8442313U, 0x53d9cdc20633cf29U, 0x204e26cc31edd959U, 0xd5f00cf1214e04e0U,
  0xfd5affdc167f11fcU, 0x1bf3002cfe17d6f6U, 0xde23d4d7303bdb6bU, 0x27e0ea05f47b0c1cU,
  0x1bff7203fde637e8U, 0x825e50e27d232d3U, 0x229040b152650e1U, 0xfeb2ee040ecc14a4U,
  0xf1f21b03fef8e7dbU, 0xb401dff9fdf6e6deU, 0xe8e6f5f00429daf3U, 0x5ce2e2022a32cbfU,
  0xfa2a19cdff1721d7U, 0xe6f0cf1521c4beecU, 0xf91d0304221dd908U, 0x23fe38ecf58d15beU,
  0xdf0526d9d1292a12U, 0x1fff3cd1bd6d80bU, 0x10ecf3e25717d1e2U, 0xe991b5fffff2c8e9U,
  0x23f7ed11e80beedaU, 0xd82102d707de04b1U, 0xe8f2e9d7e815fe06U, 0xc492daf4fbd6c9dcU,
  0x2614eef9f2ffffe6U, 0xf53d12dd1a0dfaa4U, 0xe421c6f9f4420606U, 0xe3a9e2e3f4d4e3d5U,
  0x251cccdcea41c31dU, 0xf23e1bb40b0d16ffU, 0xcd10b8e7146701dfU, 0xeac9ce000de915fdU,
  0x1e0a18e0d3fe0af3U, 0xee1500fe1403ead7U, 0x410e060f1408081fU, 0xd7b5f60e16e00ad8U,
  0x400314e2dc092ff0U, 0x52b4516ec1ff8d3U, 0xf509fb1a1a7fde46U, 0x8b6fcee17e7f6c4U,
  0x2af103d6d4120613U, 0x173f38d816ed02f9U, 0xf127060c087cd1fdU, 0xd4f4eed3bfd7951dU,
  0xd8c607dd402ef242U, 0xbfb1312370409e0U, 0xf53c0418d719f5e5U, 0xbef5b7ebe6c29a08U,
  0xf4e8cfc06718d33aU, 0x21f540f92ff227cfU, 0xd32ade0fdcfed7f6U, 0xb20dd8eee0e1e110U,
  0x16fcd2d03fffe938U, 0xe0f60a211114f9d3U, 0xd509e30add053810U, 0x391e65d6d70f0f41U,
  0xefb665c7aa1e5ba7U, 0x69b3c47acfbbad4aU, 0x66ff4d3756f7c0c5U, 0x24ea4a18e83f251aU,
  0xf88b38b0b4292dadU, 0x489dfb36f3b2cd2bU, 0x1805181446e8c1b0U, 0x302273ced36f01eU,
  0xe89449b4b7eb2b81U, 0x4ac9d928a9f8c51bU, 0x401410353ed2fbf1U, 0xa0525f109ff25fbU,
  0xe2cf1ac6f3fd31cfU, 0xc51e060f3d30c40U, 0x383ffe4320ffe6e3U, 0xf9f30841fb2a2d0fU,
  0xd28f0acb023002a3U, 0xf620eb23f8e0fe2dU, 0xcfb00f52bfec4f9U, 0xfc08f93d021c2414U,
  0xe2bcfcd0fc331eb0U, 0xf550d7f2c30ef700U, 0xfef3c2f71be9ea05U, 0x26f8ecffdfd40c2cU,
  0xe7fc55c41bfe15e3U, 0xf8ed05faf207e9ceU, 0xe90fd5e80d130f15U, 0x54fcd31749bb18ffU,
  0xb8ff29e5171613dfU, 0xe4030fe1e7d6f71dU, 0xfff7fafb06f5e045U, 0x27e6083f35d53002U,
  0xbf090d09091c39e7U, 0x520cc41cc2baf775U, 0x250a652ff325ce25U, 0x42ead204bdfdf103U,
  0xb5d710f3f60dfdcfU, 0x2b1d4d9d4fae2f4U, 0xd107cfe5dbd2322fU, 0x5eefb505fabafddcU,
  0x86f0e719d64edec1U, 0xfce7f4c2d5caee33U, 0xc3de28ebe1d41252U, 0x4bd9f74f611139f2U,
  0xaf060424cb4135d9U, 0x58f0d5d9aabbff41U, 0x15d27f1d4409ee46U, 0x63d8daf7f2f319fdU,
  0xd51011e60b1fe8a4U, 0xd8f90cc8f31c0e31U, 0x1111dddefbd81139U, 0x41bcb2fdf4ef12d0U,
  0xa0090f2de932d8b1U, 0xf30f0baede080649U, 0xf0db37b809be2f1fU, 0x47fd0927321042ddU,
  0xc2300234e8201be1U, 0x5fcef3b7e6d31a5aU, 0x1ce1370650ea3169U, 0xe6b818e8fa24fcfdU,
  0xeefc100af6f9102eU, 0x4cff0d5ff23fcdaU, 0xe4d8b91de9e705f6U, 0xb4e419f8f93e05f3U,
  0xe21b071b09ef1430U, 0xfd104cdfdf908d2U, 0xecb6cf37eef8fe04U, 0xab07fbeff514f002U,
  0xf013fa1b3d0a062fU, 0x8e50cdfece8fce2U, 0xe6f8d309e122fbfbU, 0xf9e42bf4df100205U,
  0x8fef40600df270dU, 0x20c8e3e4ead9ec0cU, 0xf8e0df38d8eafaf8U, 0xb1c8f9f3e331e2f6U,
  0xff1af81c15d8081aU, 0x1ed4f5d801ecfaf7U, 0xd3d8e83bc5e60f12U, 0x81f2d8e3f216dcedU,
  0xe40cec1e54eae526U, 0xaed09e609ddf81eU, 0xf6f6fb1dc1e82b15U, 0x2e91ce5e2edfefaU,
  0x19f3dae8ffd90617U, 0x40dde402f1def223U, 0xdfdcd923e7edde19U, 0xf0dd0ff5cdd0e8f4U,
  0x2c0f0cffedcf0d07U, 0x13ecfde303cffa27U, 0xc2dbf233bceeea15U, 0xa1dbed0adfd4e6edU,
  0xbfd08f1fcddf80cU, 0x15f909dfffedf42bU, 0xcde8f522bc13eb19U, 0x15d9f327dde102fdU,
  0x10c3e3c6c8c71d01U, 0x2afdddd9f61ac1e1U, 0xe1d104e001f6f616U, 0xf2ec061fe9dce718U,
  0xe6d5ace5d6c5e4f3U, 0x12f5da0e28d5bb29U, 0xeec616f6edcf2e1dU, 0x2fbed1cfd360920U,
  0xffe2d021ebf3f110U, 0x1bd4db0ae4c5e72cU, 0x1a2cfd150ede2dfbU, 0x3ff02ce6e7bf1331U,
  0x4efdb7a3e3bc2bebU, 0x224ebe60712cbd0U, 0xec17e7e1da26e418U, 0x34cc04f6fbbbf8f3U,
  0xf3dc9b12ef9dddeeU, 0xdefdf5ca20e0e434U, 0xeb01f805b7ca2517U, 0xd303f5f90d26e417U,
  0xd7f2ca37faf2d8e6U, 0x30f0d3efebdec77fU, 0xaf2f73b29ac2214U, 0x1afc10ca29b30230U,
  0x63eeb1a5e9ac292eU, 0x3821faf429f4bdbeU, 0x61807f4c614ed3fU, 0xbccd8ce06cde4f1U,
  0xd1fd84dbe7c8e741U, 0xe226e3f04d17072dU, 0xe844cfd7aed2010eU, 0xca09d80b1c24d8eaU,
  0xaf09bb000eecf326U, 0x40ee6ebfeeeeb4cU, 0x21ad71603b51102U, 0xffcbc9af0df6f4bcU,
