/**
  ******************************************************************************
  * @file    network_data.c
  * @author  AST Embedded Analytics Research Platform
  * @date    2026-04-30T15:55:45+0000
  * @brief   AI Tool Automatic Code Generator for Embedded NN computing
  ******************************************************************************
  * Copyright (c) 2026 STMicroelectronics.
  * All rights reserved.
  *
  * This software is licensed under terms that can be found in the LICENSE file
  * in the root directory of this software component.
  * If no LICENSE file comes with this software, it is provided AS-IS.
  ******************************************************************************
  */

#include "network_data.h"
STAI_ALIGNED(8)
const uint64_t g_network_weights_array[61803] = {
  0xfa00000003U, 0x1b0000000bU, 0x15000000eaU, 0x170000000cU,
  0x180000000dU, 0x1f2258340000007fU, 0x1916151d291923U, 0xe1d6f4e9c5e200fbU,
  0xd981e7cfdef1d2dcU, 0xadc1c1c9ddbad9dfU, 0xff0a10130000001cU, 0x319ea1efdca11d7U,
  0xd6e1e315bbf20afdU, 0x18f9cb040040eb78U, 0xf20319e71709e8b5U, 0xf2561eff1d209f7fU,
  0xfa15eb12eb13ef26U, 0xec27fe12f10bbe2cU, 0x4f315ebd8f7c2ffU, 0xf3d5f7f124f316d5U,
  0x705f2fcf9fa07d7U, 0x17f800e21be041faU, 0xf5fd0ce72cf90512U, 0x17eae50207ee0e81U,
  0xb1ef8061209e7eeU, 0xe5050a064aef0b66U, 0xec1d12fcf4e5011aU, 0x190bfdee180ee6f6U,
  0xdfec24f13e0df705U, 0x1ff0ee2d0fed46edU, 0x1818fe2eedf7f7f7U, 0xe8e4e1e217e002e6U,
  0xeef70de5ffe20c06U, 0xfb110501342f157fU, 0xafc6c7ffcbd4e906U, 0xdefed6f181e0acaeU,
  0xbcb8cae4a6dad2c1U, 0xade1eb97eadcf0beU, 0xbadedd0ce8beeed1U, 0x90edebe5d5b0d7e0U,
  0xe5ceedf6d1c9c691U, 0xc5e3f09ee798d137U, 0xd7e5b0dceebee4e6U, 0xca258106d6ec08f9U,
  0x27d1e743e1bfe5U, 0x1b15f5dad2d3e105U, 0x1fe2c8c7d7f2fbc6U, 0xccdbd4e4eeef02c8U,
  0xd9429916e7e30a30U, 0x1eddb90ab7f4c1eaU, 0x8c090f0c7cc05eaU, 0xcbaf05debfb1d4b8U,
  0xd7c5c3c68ebaaa87U, 0xccc5eadcc9d60bfcU, 0xe3e3f6bff1c4cbd5U, 0xc4cabed5dee4ff82U,
  0x94facba3e82ec1bfU, 0x2e8e4d7e9dba281U, 0x19191055fbfbc7deU, 0xd675b1117163d1cU,
  0x431a4b0f1a10362dU, 0x23347f1b0c0e7424U, 0x1d1c1b4910470e0cU, 0x330c0b11134a440dU,
  0xc2e0a720d40401cU, 0x1c480c3f6a1f466eU, 0x1516fc3c0d205814U, 0xd262dee001e201dU,
  0x23012c061e0b2a27U, 0xfb194916fe021c11U, 0x19f8133a0232ff01U, 0x3a03041208347f03U,
  0x91601aa06590a29U, 0x1c450823450b46eeU, 0x7f050f1608U, 0x2c32573c302e267fU,
  0x3b2439511e7d5d1fU, 0x20245933493d5122U, 0x2057211f3d387631U, 0x24404820333e3c64U,
  0x264c68433c251c26U, 0x6f244b612038216fU, 0x203c7b302c502046U, 0xe6edc0b405cce515U,
  0xc6f0ed07f7fdd0ffU, 0xf7f3f5cfd1a9ce05U, 0xfa0df3e8d6d901eaU, 0xf6c82ff4d4b9cc31U,
  0xeed1eca7c2f402f9U, 0xa8eadc7ff2e9f5c4U, 0xf5b5f1edf6b5fac3U, 0xc0109120000007fU,
  0x1415fcf20f1d040bU, 0xb69d88113effefeU, 0xe8ed3103f113f8faU, 0xfa0dfcf0031e050bU,
  0xfa0a02f41af81c03U, 0xd704f502f41129f1U, 0xeffd29d30d001ef3U, 0xd9060201f31ef206U,
  0xfe0303a9eef5f6fbU, 0xf8ee02fcd721ff16U, 0xe707fffafaf7fef1U, 0xe801111e0713f700U,
  0xf7f61300feeb0101U, 0x34f7d5f904ef020dU, 0xffe6f5eaf1facd0fU, 0x81eeecf62b2d81f4U,
  0xfa12c3ff11020e30U, 0x9dc2b2515edef10U, 0x152119ffd1f6f4f8U, 0xd70908bbf8ded7ecU,
  0xf42dc0f8f00212ccU, 0x25eb060e050813e8U, 0xe8fcf9fc111314ffU, 0x9bdee3d845f2fffcU,
  0xe21ee0e3d2ebe9c6U, 0xe0f2f6e0d2e7d2c8U, 0x81d9daa3e6f905a9U, 0xdfd4cdf1edcbf6e5U,
  0xaaededf9e398a0eeU, 0xefef05efdee2e407U, 0xe1d7f3cde6bfc70bU, 0xebbae693fdc9e7f6U,
  0x86ecdef7d4d1da75U, 0x7758be360bedad6U, 0x20ac0c6b1aeddeaU, 0x6b06fbcec1b9b704U,
  0x9f4d59711b21981U, 0xcda7ddf68aa3ee96U, 0xf9f9a600e320ad9cU, 0x81ea83f9af96a0caU,
  0xd0bce8cc08cb07cbU, 0xea92e2dcb5d6e1c9U, 0xe7c1d9dbd9ca83dfU, 0xdcae92e7d1dfe0ecU,
  0xd8ccd6d4c9c3b4abU, 0xefe70798efdff2c5U, 0xf7dc14e00fdab0e8U, 0x1e1d155de9d6d9bfU,
  0x106a64131c1f4620U, 0x461c51131e1a3229U, 0x25306f1b10145d1dU, 0x3027254c0e361615U,
  0x3112101616403d11U, 0x102b117f154c5125U, 0x1e401337601e3a6cU, 0x1f5f17f15215815U,
  0xaff37f8e700e802U, 0xfe51d13f315fb24U, 0xd91f2afaff0d3001U, 0xd30ffd23051b0005U,
  0xed020bfdfe004702U, 0xfafe07f6f60317eeU, 0xf0f0040112e20121U, 0x7f07e8f5f8U,
  0x3f3955423638315eU, 0x3726483b2a7f6d26U, 0x202f50345342592aU, 0x2857222841475e3aU,
  0x2b4753273c4c5259U, 0x2b5e624c4524202dU, 0x6437476622432677U, 0x21497c3237502b57U,
  0xcde5b2b8f3bdd114U, 0xeee8e2f1f055b003U, 0xf9ed04c8e4b5e9fdU, 0xf9c0fae5cbd4d4aaU,
  0xe995eaf4e8bed52fU, 0xecc6e3b188fe03f4U, 0x9adcd07ff5f3f888U, 0xffa1e2effbc8f9bcU,
  0x5cd3f3d20000007fU, 0x43fbea390bdfc22cU, 0xf716e0f9f5fd0dd0U, 0x1bd614fa1e363e0aU,
  0x2c172e030629f1f4U, 0x27f9180eedf312f5U, 0x47d8db81f967b807U, 0xe83125d7e41be5d0U,
  0xf8e6f905d5f23151U, 0xdde1e4050d120ff1U, 0x200008e67f0a0a5dU, 0x19ba03f6f878de06U,
  0x8f051026e13bfbf1U, 0x4f80efa00080511U, 0xe10d0efaf7f3ef23U, 0xdc95aff811090824U,
  0x12f0be293d0df3f0U, 0xfaf9e10a500f18e1U, 0x5c06ec342d07f76eU, 0x1526d5f801ed1e22U,
  0x1ca1ff0c2a811f23U, 0xa33f1f12de315d5U, 0xe22210013ea01fcU, 0xaac6f8e309f51515U,
  0xa203eedaebfa0565U, 0xdcfcc8b3edfdf6e6U, 0xdee8f9e7d6e3d4e1U, 0x81ebe6e3ecf3eed5U,
  0x10fdfbebf0f8d5eeU, 0xfef2f9deeaf4d308U, 0xf0d5fb12e6ff0806U, 0xbcdafffdfdd3a9e6U,
  0x7fe30f0c00U, 0x1bd419970000007fU, 0xebf7e9262d81f325U, 0xfa4e0ae94d0a14e1U,
  0x35e9a6f91b02d469U, 0xff1219e8c4ee1611U, 0xceed05241a1315f5U, 0xdefecaed18f913f7U,
  0x288cd5bd94161defU, 0x7f3ef5f3baU, 0xf3c5f3c1d2c2beb0U, 0xbae1ccb581d007e8U,
  0xbfd3c5d1b3fde9e6U, 0xb5d8e0b8cdd8dbb2U, 0x1e8e8f3dcc7cc9cU, 0xd9eddaf0d8e8e0c3U,
  0xd3b5ebcfa3e6fcd9U, 0xd6c6fee2c0b8f3ebU, 0x1b253c1c1a171553U, 0x2114292014655118U,
  0x13104c1b42183e12U, 0x13311616222a501fU, 0x143c3f0f2728224eU, 0x14455a2323121017U,
  0x601e31610d2b147fU, 0x112156171939102bU, 0xe0cfcf130cd9ca32U, 0x2cfbf4412a650242U,
  0x12f5a7da10bc4316U, 0x151619f431264be9U, 0x781fdf7180a1a5dU, 0xa1a28e7c70d13f1U,
  0x2ce8038efdd4fb7bU, 0x16cbe7de03071028U, 0x342423400000007fU, 0x197f5f1b282b4c2fU,
  0x3b32461b2b1a3b2eU, 0x3c3a5a28171e3d2fU, 0x363a3945164d1b18U, 0x2f19171c1d254b17U,
  0x193214651a43542fU, 0x263a174864263760U, 0xdcd9e1e918307226U, 0xf724a6ffe7e4e0deU,
  0xf2d4fafee9efde01U, 0xb8dcd8c7fdf4f8d2U, 0xecdbe00ffceafceaU, 0xb6fd04fbf2dce1f8U,
  0xf7f9fceef9d807e2U, 0xf2b7ffd6c6e4b87fU, 0x7ff9cef8f4U, 0x9f3fd11bbf8090aU,
  0xf8000d13f5f9fdc4U, 0xbcc0b00485cfeebU, 0x11f49bfc01e502efU, 0xf311fa81f4131eccU,
  0xf2ff0de1f0f3f5fbU, 0xf708fcfb0000fd03U, 0xa517fceffafff9f9U, 0xd9ff07e800031613U,
  0xae6fffaee0ae7f4U, 0xe813fff41705e2ffU, 0xffa7581b410ffd00U, 0x1e06f5c5fce609e6U,
  0x906e859fdff7fc5U, 0xf90fe80bfb19f50aU, 0xeef62ef4229105e4U, 0xd0a11120e131ae6U,
  0xea1b120813f2ed12U, 0xe600dc21130216faU, 0xfaaeeced070ee7f0U, 0x2afcf910f0f520efU,
  0xe6e9e93a02017f37U, 0xea01faf9f9f4f0e3U, 0xe9f60fe2169f0de9U, 0xd1e6fae8c3e4c4faU,
  0xd2c4f2c2abec0687U, 0xb9b9f4e4f5dff2c9U, 0xafe99fc0c30b03f2U, 0xc501eaabfbd1eafcU,
  0xad00faff0daa81c6U, 0x11c51cd3b7b79b0fU, 0xb51201d3d916c0eeU, 0x80df51f370c0bbaU,
  0x24fa1581d0e605d8U, 0xe800ed3fa435d5dfU, 0xe604f50d3f0acd0fU, 0x15e812e4c805eceeU,
  0xee10fefebddef101U, 0xf40c13e9f911cdf2U, 0xf80402001dfcb500U, 0xf3f102c7dfca0cf1U,
  0xceebe89ae3d29fdfU, 0xfec2bfe90597d3b9U, 0xaef3ecced7f0ddd9U, 0x16c5cadbdcd6e4ebU,
  0xeae8bfd081d7c6b3U, 0xf5dcbfd9bcbde5d9U, 0xc3b6c3aff5dad7dcU, 0x1d0e221919100d2eU,
  0x1609222409517f11U, 0xb083e192a18210cU, 0xb1e110a1f1f6519U, 0xd4134081614142fU,
  0xf323d1c1f08090dU, 0x3216224d091d075bU, 0xb174e0a15310822U, 0xfff6db231ceff055U,
  0xdeff36a0b63352aU, 0xff0c1cfbfaf714feU, 0x1015f5e7ff44caU, 0xf7bd2afff8110a5eU,
  0xdfc5ed802f506f9U, 0x16ff1c11f936027fU, 0x15c0e7ff0cbf0003U, 0x201815330000007fU,
  0x154470141b162930U, 0x3726560f280f4423U, 0x253467190f0f5d20U, 0x30271a2c0f2d1311U,
  0x2d100f1113392a0fU, 0xe1e0c521a2c7f26U, 0x29481241271c2c58U, 0xb1cbbb00102a4c12U,
  0xa5efbeb0b9d8d3caU, 0xeab2fadcbbd0deccU, 0x81d7daaad0ccffa6U, 0xe084cbdccec8c4bcU,
  0x87ccc7cabdeabbcaU, 0xcdc6cf2aa5deeea3U, 0xa0aec9e50ea9c972U, 0x7fd19f0ed6U,
  0xe100fb082fedfa23U, 0xfa06030afcb50000U, 0xf2fb09fd03cf0219U, 0x2fb0102fcfefd02U,
  0xa060efcf4211aU, 0xcff0427fefdbc05U, 0x702feb2d024fefeU, 0x231c8ffdf02ffe6U,
  0x112070100ff00feU, 0xfe2700ff03ff00ffU, 0xd316b3fdd000feU, 0x12020401d60211U,
  0x381ffffdd0002U, 0xfd0003e802a1fe00U, 0xa1000eff03130003U, 0xfd0e1bfffcfd01U,
  0x4fefe01f20401U, 0x1a03010203ffcefbU, 0x4130200d4a10410U, 0xfafffffffd00023cU,
  0xff30fffd0100ff02U, 0xfc007caba9fe00U, 0xfb0000c0245a20f1U, 0x401f901fe0227U,
  0xfdfc01fe03cfff03U, 0xfd32d9b24f000000U, 0xffc7fd0039046001U, 0xfa00fefe06fcd459U,
  0x2034004d20202ffU, 0x2cffff04ffffff00U, 0xff0202ff0743ff04U, 0x403fb00030202feU,
  0xf20904faf4f90ff3U, 0x106effa060bfd08U, 0x3fb02f33904030fU, 0xafcf003090bf701U,
  0xd62106f8f207fb40U, 0xf6fd180e0215fb02U, 0xf9f900f3fa110801U, 0x2040ffefd070502U,
  0x120ff80906fbe9f4U, 0x1d14f7fcf0fba5f4U, 0x171c7f191c1aede8U, 0xfe0cd631f902f703U,
  0xee2022f81ffcfcfbU, 0xf7d6fcee12fdfff7U, 0xfb10eaf1f9ed0606U, 0xebf515e90914dfecU,
  0xecfad409e615fc04U, 0xf6fdeeef46e6160aU, 0xe90c01fb0318fee9U, 0xe039f7e6ded9f0dcU,
  0x12f62625e8062cU, 0xe611100029df210cU, 0x8f428f5f9fb2414U, 0x13f0181413ab1af2U,
  0xded590ee50e0efeU, 0xe91a37d5f447e99bU, 0xfe11f7eae985e412U, 0xa7fcfad1f51b00b6U,
  0xeda3053326e40f23U, 0xeb03eadb29d91205U, 0xd4061615ff0cfbecU, 0x1ce9fbf5ea000bf1U,
  0x1508ff0d1ef02f16U, 0xfefce8df4b002bf9U, 0x1f13fe1919f62bd8U, 0x31372508e0ee181dU,
  0x1126fdfde6efd81bU, 0x18071ed8ee0ce2d7U, 0x2dde8138082245f1U, 0xf9e7cb4238f00a1fU,
  0x1a6771280000007fU, 0x3bc3c3ed10381739U, 0x1eeff15221593152U, 0x1b43b67f3d4fb936U,
  0x1f0405164353095eU, 0x584846535c364373U, 0x750165b10f3bcb55U, 0x28296760156f6b1aU,
  0xf2231262a3ce02bU, 0x4f3311f3e5edef00U, 0xe3ece6f111202459U, 0x191f55492d08eae1U,
  0x5e9dedfdcd0e70bU, 0xdfef0a161f504325U, 0x4b412608f1eae9e4U, 0xfcf8ebf9090e1fU,
  0x402f324f412c13fdU, 0x6070affeadcf32eU, 0xc7d71c30212196fcU, 0x1bf1714090518f2U,
  0xe190ce7fe0a1e13U, 0xc12feec1c1f16U, 0x2b2d1720130ae2f9U, 0xeed4d5daded7ec04U,
  0x191be4ddd6d9efebU, 0xd1c1c1c08f3f6f3U, 0xf3ebe5fb0c7f411cU, 0x3e0f03e9fbe1dfd8U,
  0xfb05fe13f0e7f60fU, 0xeff91c331104edf4U, 0xfcf6fd0105f80dfeU, 0x1c0a03f9f71b1f06U,
  0x2504fef7fe1519U, 0x14190c110504f1f8U, 0x1711060509fbfc01U, 0xf2fefaf2f2f31307U,
  0xf80cfd140b08fd11U, 0xcfa08ea05f2f2efU, 0x1000a0708030e0bU, 0xb0c0c0f04ffef05U,
  0xdad5eafff40716fbU, 0xf1f106fde9f30f0dU, 0xfb03073c43281afbU, 0xb05f4f6eafdfdf7U,
  0x16070409fe0fea14U, 0x906160b00fc0a04U, 0xfbfff0fbfb060703U, 0x11141505091a1301U,
  0x1e16090a110ff7f6U, 0x484b16f2e1f2eb20U, 0xe0ed1cfc7d3ec0dU, 0xe1ff2d6a5a18f7f2U,
  0x11f0fd1c16d1dad5U, 0xd7e2e2ed18417359U, 0x506e4005fb041c19U, 0x71105e2f0ed0024U,
  0xef05263e472000feU, 0x40af4e6d8e9ecU, 0xf8cc04fafe171212U, 0x240c1bff0b190903U,
  0xd120af3ec090917U, 0x60707f9ebded7fcU, 0xeff613161711feedU, 0x16f3ecfefdfff2f2U,
  0xfef40a071c343221U, 0x15f9e2da06f4f9fdU, 0xfaf3f803fbfffd06U, 0xebfa0a12faf1ef1aU,
  0xf2f72f251a150bfcU, 0x1815ffedfaff06feU, 0xec08fb0a193f2b16U, 0x472517141b0f01e9U,
  0xebf301f6f7e9f20dU, 0x150504131f06fdffU, 0xa070005ea01151bU, 0xdffe0afef20e18efU,
  0xe11e3f9f7f0fbfeU, 0xe3f318e705f0f7f9U, 0xdaf1010c13f303f7U, 0xf90705edf201e7e6U,
  0xfe04f7f4f8040c15U, 0x3421faf3fe0a01fbU, 0x5090b0d1b283436U, 0x2f35352f1cf6f400U,
  0xedeff9fe03070c1bU, 0x30a172c2e2f2516U, 0x20190ae0ebf2f8fdU, 0xedf0f2f9000e1c22U,
  0x10c0f0e09f6d2e7U, 0x221be4e7eaeceff6U, 0xf3ede2e1e7fc1221U, 0x81f2e302509fcfbU,
  0x5fbf4eee3d8e0efU, 0xd4deef0c2334332bU, 0x36332f04f8f1ebdfU, 0xece3dcddea00192bU,
  0xc253238363500f4U, 0x12fef7eddfdce2f3U, 0x106f9253d332915U, 0xfe150f01231c131cU,
  0x5ff0601e9d5f8ffU, 0x3ebf1f7fafb0003U, 0xf7f9f4f70408ff05U, 0x130e04f0f71606fdU,
  0x2e0c06eff0f6ef03U, 0x6eff4ff04182126U, 0xc0eefefeef601f0U, 0xeffdf222dae9e7efU,
  0x304050708030000U, 0x150e0bf906ef13ffU, 0xe7120c0d1616090bU, 0xe050b11140df605U,
  0x11080de113161e1fU, 0x242d3014090c0612U, 0xceeaede4ebfb0f24U, 0xfe15a2f1ff0600ddU,
  0x120901fb1609f8edU, 0x1afef00520d80f16U, 0xe3171c161914112fU, 0x9201f0603152fU,
  0x13263ee414180900U, 0x1706f1f916241c07U, 0xedf1e5ec03fdec12U, 0xf60416151afce4e4U,
  0x7151b381201f605U, 0x1f0f9ea141a1618U, 0x805150108251519U, 0x912fd07f7fce704U,
  0xf3dcf3f0f308faf9U, 0xf1edf00105f8f9f8U, 0x91c1b09f60ef7f1U, 0x353d3e391c0bfc03U,
  0xe9dfecebf80b01fdU, 0xfd0a15141c15fdU, 0x804f2e2eef2eef3U, 0xfff6fdfefb0e0307U,
  0x13f6fc00faf7f40bU, 0x406130a15170f0fU, 0xf8ddddedf001050aU, 0xa00111906080a0aU,
  0xe6fd00fce7d9f915U, 0xf703feebe7080ef6U, 0xfc140004f8f3f906U, 0x50803ff0d07feeeU,
  0x40bfa0014181501U, 0x1a251918fdfd0814U, 0x1b180006070b0b17U, 0xe6eff91a3b53432bU,
  0x26140d141504e6e4U, 0x3faf9f1f2f60b24U, 0xeff9f9f6eeff0e12U, 0xf9070ffe0708fef4U,
  0x161311110b06f1eaU, 0xdf6f00a11190614U, 0xfbd9283a3b3d3824U, 0x60100210efcfd08U,
  0x8130cddb0e5f9U, 0xd3fe0e1511132e0cU, 0x123d3615090f0be3U, 0x401ecda0309140cU,
  0xf0d01ee0d0a0608U, 0xfd00f8fcf4f8d904U, 0x1e1f606fff6e7ffU, 0x7fbebf3ebecece7U,
  0xf3faeb03f4030b0cU, 0x1518161b0dfee5e6U, 0xeafd0b0dfb1408U, 0xa24111b17131a0cU,
  0x1418150b0916221fU, 0x353b38273a11221eU, 0x13201f1304ff0a24U, 0xebfa03f6daf80818U,
  0xfc110cfa1709fce9U, 0xafcf3042013fcf3U, 0x1607f90b1108f012U, 0xded1308fe060920U,
  0x9061904fdfe0e18U, 0xe1c2c29ea070504U, 0xf2f801f1f3fefafdU, 0x8182418050422e6U,
  0x1b0f01f7f8fd01U, 0xf0efecf80b221908U, 0x15150401211808f9U, 0x1f0cfdf1eee9f603U,
  0xe5e7fb0b0a03092eU, 0xb183a271607fef1U, 0xd03f6eeed000508U, 0xe07fef3e3eb301fU,
  0xf9b6ecf4f10908fbU, 0x9f9142d301bf9faU, 0x11f4f8f90c1e150dU, 0xd0103f0f80efd16U,
  0xfaebf0fef412fff9U, 0x5e605120901fbf2U, 0xf3f9f1decfdeebfbU, 0xf9fafcf2f1f3faf8U,
  0xf7151915f8fe0612U, 0x23260e07010ff2ecU, 0x14fae5eb0b141a04U, 0x1215ff07ece5130aU,
  0xf006080e00dfe903U, 0xe1e7f90704fd1af0U, 0xe6feecf809000bfdU, 0xf2f6d8e6ff0a05f4U,
  0xc8d5dfddf2f0dee2U, 0xf2d9e705262220c8U, 0x1e2115211b140d03U, 0x2728191b08ec0921U,
  0x515221a1b2120U, 0x252b1c1f23190b05U, 0xc0c0307fdfc140fU, 0xf7f9ec0ffff1f406U,
  0xe5f3061105f1e9eaU, 0xfefb030d0cfedadaU, 0xae2e2ebfc0d180cU, 0x151f190b0a151819U,
  0x25262511ecebf405U, 0xf6ff1120241b151eU, 0x181c2e3535321bf4U, 0x50eff0108142024U,
  0xe3ecf3fa0113140bU, 0x171804fe06dcf0e0U, 0xf1fcf7fb111c1712U, 0x3e321f150a00fb01U,
  0xfcfe01fd110b132bU, 0x1e1a1a250af90c06U, 0xd906000503050f21U, 0xc31a2c2818f9f0deU,
  0x212b1ef7e0f4e1e0U, 0x1e0dffc7321b1718U, 0x294a473a39331709U, 0x2514171f1601bd42U,
  0xf2c44c3e4e463b38U, 0x3e2c23140e171f11U, 0x906f2d2ce533f48U, 0x423b34280f120e03U,
  0xf10808150b070906U, 0x30904e209161a05U, 0x7f7011211030908U, 0x1f0e0a0403fdef0aU,
  0xfef201f7f206152eU, 0x5fafff8f004f80aU, 0xe7ecece4f9fdeef8U, 0xfaeae500eaf1e2ebU,
  0xf61f0905fdff0304U, 0xf9ff4e2914fd0701U, 0xf9141b060bf4f2f7U, 0xeef9fdf2fc1709fdU,
  0xdfaf3f80c09e4e6U, 0x30c11050003f3fcU, 0x5eeff04f7f0faf6U, 0xe9f0e9d60f211b15U,
  0x13f8eff0f2edf9e5U, 0xf64d443f31222020U, 0xfaf7f80ffd030704U, 0xf0d07f14b3b3319U,
  0x3e3115f1e7f60f08U, 0xf7070b121205ef4aU, 0xf4eb41393018fcf4U, 0x1e150c04fe00fffbU,
  0x9182c25143d342eU, 0x3080c0e0f06f2f9U, 0xfcebebfb181f0fedU, 0x403e4ff08040604U,
  0x800172131fd0008U, 0xe3fff6fefaee0708U, 0xebff080cfa01090dU, 0xf2fdf2dae9e1e4d1U,
  0xc1c3568ece7eae1U, 0x220bede9fd0e190cU, 0x131b0bf7ff196846U, 0x16713007f0dcd8f8U,
  0xd0cef81a1e01ebf9U, 0xefe500207d26fee9U, 0x23f9e5c8c6eb0006U, 0xe2f7f9e9f713307cU,
  0x324431f01eacfc3U, 0xfffffbf3ffffe7ecU, 0xeddff2031a2c18fcU, 0x2408f9f9f8eafb00U,
  0xa060bfefc070619U, 0xfe050d2b1106fe07U, 0x50514130407feffU, 0xc0900091318240eU,
  0xf70a0c110c1c1617U, 0xff09eb0cf7efe7efU, 0xe0cf90317e1fcfaU, 0xfa07050f0bf00505U,
  0xeddaf30e0c071320U, 0x81b24010f151507U, 0x191c0ef9e2040d09U, 0x5080316231c0917U,
  0x33122328261918fcU, 0x11130b0f251b1205U, 0xfe09ff270af1ecf6U, 0xf7ecedf4f9f2f0feU,
  0xe4e5f9f401fb1f08U, 0x5210d00f3efeaf1U, 0xfaf3fe0504fef303U, 0xff0e0f181a251903U,
  0x3f291e0c0c122116U, 0x90700e0e5ebeeedU, 0xe4e6ee0d11161617U, 0x40308fef0d6f3ecU,
  0x1903fffff0fa0404U, 0x7040701fb09131eU, 0x50603fa04120bfcU, 0xe3e2df0c0a010603U,
  0xeceafb0a000605e4U, 0xf80a160a0e1a2806U, 0x131ec1ccdae9f3f9U, 0xfdfcfafd06160706U,
  0x1c08080c1fd1daefU, 0xd9e5fa0908060811U, 0xe0f1411090c151fU, 0x17203ae4f005181bU,
  0xf212619181c1714U, 0xfe0b130d06e5f8fdU, 0xeb1a04faf9fefbffU, 0x7080d050a0b0801U,
  0x607fee92d12ff01U, 0x1c0a0d0f131c1309U, 0x140f0d0e0c00f335U, 0x3fc422c191c1816U,
  0x231e0d0b1117170bU, 0x806fcf3f1493c2fU, 0xd9f2031211f20f19U, 0x11212e16120efffcU,
  0x7f4eb040d080505U, 0x5ffedfee6030606U, 0x81b140dfee00505U, 0xd4130501faecf1faU,
  0xede9f7190f11f7e9U, 0xd1a200b110103fdU, 0x1b191101ecedfbf8U, 0x9ffd8f20f0e08ecU,
  0xfdf7ed1f0e180c0eU, 0xcfafc03fae9e406U, 0xf1ff05f2f1f00e0dU, 0xfd111408fc080911U,
  0x80908090cfbe4e5U, 0x8ff04fefefefefbU, 0xff07261c17161519U, 0x9edfe12fef7f6f1U,
  0xf8f3ece7ff0f1207U, 0xfff4d4fbeaf8fff4U, 0xf1f0e9fffde4e2efU, 0xd9ebf1fbf40f07ffU,
  0xfcfafbf8f200f8f4U, 0xe3e4e0c4cedee6f3U, 0xf9061a0c182003e6U, 0x3817f0f4e9f8f1f3U,
  0xe4ecf907f715211fU, 0xc09f620f4ecf1f7U, 0x80c05eff3f6fcfcU, 0x30108fffa032309U,
  0xfbfffd1a1f0e0106U, 0xdf1f1a150c17fcf2U, 0x1bfbfc1830200bf2U, 0x331cfede4f39382eU,
  0x20202b2e13062540U, 0xfa1b3b3420fdde26U, 0xefdf13090c19290bU, 0x51e151a35392e13U,
  0x3615f2e3e2fceef3U, 0xf0d1cee2041a4b41U, 0xeefb0afa00030a19U, 0x808072512110bf8U,
  0x12160f0d1e171411U, 0x50b0e05ff1611U, 0x8221a161c17170eU, 0x7fffaf3feff0605U,
  0xe7f8f0e52d1f1818U, 0x1e0e0df7d6d7d7eaU, 0xfb030e180f05092fU, 0x706e3eaedeef3f7U,
  0x1050a080a121913U, 0x1619140607eff8feU, 0xfb040c11161e190eU, 0x1e0f060e130c0104U,
  0xf6f3f7050e161f21U, 0x1e2325200dfafbfbU, 0x233134281f0e1116U, 0x12f71b1a1912171aU,
  0xfe09092b413d2917U, 0x3e260b0bc1f0fb00U, 0xdeebf2f7060b2e46U, 0xff243a2d1900f4b1U,
  0xeeef9ec8dee3ebf6U, 0xc9dce6f00e2111fcU, 0xeafd34332280a1b9U, 0x340e01e3d7c1cfdeU,
  0xebf6f9e7e4000a04U, 0xfc0604140a0600f1U, 0x181e15110afff2eaU, 0xe9e5050e07080d17U,
  0xa0f1416160d0901U, 0xe1119091b1f230aU, 0xf9e1c9cc0d060511U, 0x494039302720180bU,
  0x1f190bfbe4cace50U, 0xccd447443b302621U, 0x2f251c1c1108f8e2U, 0xaf8e2d3e04a423aU,
  0x4840382e231c1711U, 0x1b15110cfdebe0ecU, 0xfafc084c40342720U, 0xf7f6f60dff0b1e0aU,
  0x30a14edf0ffeaf2U, 0xf2ebfc01ff05ff12U, 0x31f1e181512f0e3U, 0xfbf1f0f4f2f7f900U,
  0xfaf4f901f6f6f9feU, 0x400effd0406fdf1U, 0x141801f9f6f91111U, 0xeeddfe7eefb150cU,
  0xf3f6000a11202421U, 0x1a0a0e04f6f70bfcU, 0x61300dcd6e9f404U, 0xe0f81117050706faU,
  0x40d0105210edcd2U, 0xfeece6fb142211fcU, 0xe209fcff09f90418U, 0xc031c1ceaefd0d0U,
  0x3f2f7fae3f90600U, 0x160e121100272305U, 0x71315fdfb09f907U, 0x18f3fd0403fef303U,
  0xf7f9fdf20a06f9fcU, 0xf6f1f606e303fff7U, 0xfeefeeeff0e9d4f6U, 0xf0e4eaf8080b0efdU,
  0x109f85744321e07U, 0x2e19fee2c9cbddf6U, 0xc9d8ecfc08f35540U, 0xf154402f1900e6cfU,
  0x5e5cecfe2f0000aU, 0xf0f9f3e455402f1aU, 0x402f1b05e6d9d5e6U, 0x3b3b322706ede454U,
  0xf3e74715090d1627U, 0xfd072034221e190cU, 0x151711f6e53c0e04U, 0x390efff4f70b1b19U,
  0x513171f1e18f6e6U, 0x7ece33c12faeef1U, 0xfef2fa0c2025271bU, 0xd9f8ebd7d8f83d15U,
  0x110a6420ebd9dfd0U, 0x16fef4f40df9ecf0U, 0xfaf8fa1416702309U, 0x58180608fff7ea08U,
  0x7161408040a1914U, 0xc0b4c1a050713U, 0xe140f162b16f1f0U, 0xcec5ccdaef0e3a1cU,
  0x1f2221221e15fedaU, 0x1700ecdfd3d6e5f3U, 0xe5eef6292e2f3127U, 0x3e4136250bfff0e7U,
  0x1300f2f2f8f73238U, 0xf43f414b4c413422U, 0x4e40291a0b04fffdU, 0x10b170e3d4a4f59U,
  0x2107fe070d130e01U, 0xf05fbff08120134U, 0x6fd2c19fcf0f103U, 0xf1f7030cf2f3fafbU,
  0xfafaf301032214fdU, 0x2417030307152201U, 0x312f150b03fb080aU, 0xfafafd1e17080615U,
  0xf1080b27201a24ffU, 0xfa0c060bfffa13f9U, 0xfdfae9e706071f0dU, 0xfa01fcf014070bf6U,
  0xd03fcfef1f3ecf7U, 0xf3f0f3f409010c1eU, 0xef00fa0df708f9ebU, 0x2221fffbe9e6e5e7U,
  0xfc0c141c223b3229U, 0xd161c171ed8d1eaU, 0xe7e9eef2f6e6eb04U, 0xdcdeeefe060d1522U,
  0x91523f6f8f4f6eeU, 0x708fef2f80c0805U, 0x2d1c1a1a2021ff06U, 0x23131f2425201f27U,
  0xfbfe041e1b202b12U, 0x1513132ef19ac1e9U, 0xe1e6e9f7f404050eU, 0xf9f70a01fa0b3122U,
  0xf3029f1ece6f1f8U, 0xf1eef9fdf80d0300U, 0x1a1f1f2225340cfdU, 0x56392616110d061cU,
  0x1efbeffce3e3e0dfU, 0xe4f7fefd06fb1724U, 0x7140e24211722feU, 0xd40500e2fefbf80aU,
  0xfef301fd111309ecU, 0xf16170c12fffb12U, 0xc17200afa05ee00U, 0x150c060903142021U,
  0x4d2912141f2f360eU, 0x1f2ff712243f5a60U, 0x2f4b492903f3fa0fU, 0xd7e904162be60115U,
  0xdff40618282100dcU, 0xf7d8bfcce3fb0f24U, 0xf60719d5e6f2fc03U, 0xd5dde1d5b8b9cce1U,
  0xb0c8e9071923c3caU, 0x2013543d2808d4c6U, 0xdf4e3d3dff9141cU, 0xc1e17221747382eU,
  0x3b311f1afaeae5f1U, 0x9ee0518291b2517U, 0x222207321f110906U, 0xfbfbfe11fc071c29U,
  0x29261a0b0ced0d08U, 0x1bf8f804140f0426U, 0xf4e70607fef8fe09U, 0xdaee1212faf3ef06U,
  0xefe9ecf8e1e4e2efU, 0xfe0504edf61707faU, 0xe0dfdfaf3f70d08U, 0x112210b1504f1f1U,
  0xf5f4f2f308f7faf9U, 0xf4f4f317f5f3f5f4U, 0xfcf3f2f4f4f3f5f3U, 0xc5fdf5f3ea43f4f5U,
  0xbff3f4f3f5f5f5f4U, 0xf3f4e5f5f3f4aff4U, 0xf3f4f2f3f503f4f4U, 0xf4f4f4f30ff3ebdbU,
  0xf6f4f500f4f5f3f5U, 0xbcf4f5f5f3f500f5U, 0xf335f5f4f4f3f4e5U, 0xf7f4f5f4f3f573f3U,
  0xf3f518f5f5f5f5f3U, 0xf5ebf6d4f5f4f4f3U, 0xddf5cdf4f3d6f5f3U, 0xf3f6f3f3f5f4f3f4U,
  0xf5f3f4a1daf5f6f6U, 0xf2f4f4f33ff5f5f5U, 0xf3f3f3f5f4d5f3e0U, 0x42f4f3faf3f4f4f4U,
  0xf3f3f2f5f4f5f654U, 0xf4f6fdf4f3f3f5f4U, 0xf4f4e6fcf2f6f3f3U, 0xf32efee0f3f4f4f3U,
  0xf3f4ddf3f4e5fcebU, 0xf3f5f4f4f5f31cf3U, 0xf4f5f5f6f3f5f4f5U, 0xf4f4f2f3f5fcf615U,
  0xf3f4f2f5f4f5f2f4U, 0xf3d1f5f5f4f4f2f4U, 0xf3f3f4f4f3f4f3f5U, 0xf3f4f4f3f4f3f5f4U,
  0xf4f4f4f4eef6eff4U, 0xf5f5f5b4f7f3f3f5U, 0x32f3f4f4f4f4f4f4U, 0x6f9f4f423f8f4f4U,
  0xc6f4f5f4f4f4f4f4U, 0xf3f3b0f5f3f4c2f4U, 0xf3f3f4f3f4e1f3f3U, 0xf5f4f4f421f3f0eeU,
  0xf5f3f313f4f5f3f5U, 0xeff4f5f3f3f5a9f5U, 0xf30af5f4f4f3f322U, 0xdcf3f4f5f2f42bf3U,
  0xf7f5dcf3f5f4f5f5U, 0xf5bdf4fbf4f304f3U, 0x3af5e4f4f407edf4U, 0xf4f6f3f3f4f4f3f5U,
  0xf5f3f4c3fbf5f5f4U, 0xf3f5f5f413f5f5f5U, 0xf3f3f4f5f4e1f409U, 0x2bf5f4e7f4f3f4f4U,
  0xf3f4f3f4f5f5f55aU, 0xf4fb0ef4f4f3f4f4U, 0xfaf30de9f7f5f3f3U, 0xf404e8e5f4f5f4f5U,
  0xf3f5d5f5f4e5e9e1U, 0xf5f5f3f4f3f4d3f3U, 0xf4f4ebf5f3f5f4f3U, 0xf3f3f4f5f5bff5eaU,
  0xf3f5f5f4f4f5f7f3U, 0xf386e3f4f5f4f5f4U, 0xf4f5f3f5f2f4f4f4U, 0xf3f4f4f4f4f5f5f2U,
  0xf4f4f5f3e4f5e9f4U, 0xf4f5f507f5f4f3f5U, 0x12f3f5f3f3f3f5f4U, 0xcaf3f4f31807f3f4U,
  0xd3f4f5f3f4f4f4f4U, 0xf3f3e7f5f3f4e7f4U, 0xf3f3f3f3f5c4f3f4U, 0xf5f5f3f427f4f7c7U,
  0xf5f4f400f5f5f3f5U, 0xe8f4f4f3f4f5c9f5U, 0xf4f3f5f5f4f3f368U, 0x1df4f5f5f1f42af3U,
  0xf8f50af4f4f4f5f4U, 0xf412f3ecf5f32ef4U, 0xbf505f5f43ff2f3U, 0xf5f6f4f3f4f5f3f4U,
  0xf4f4f5f240f4f4f4U, 0xf4f4f4f5def4f5f4U, 0xf3f3f5f5f4b7f3ecU, 0x27f5f400f5f3f4f3U,
  0xf3f4f3f4f5f5f517U, 0xf4e0f9f4f4f4f3f4U, 0xe2f3c7fcccf5f3f5U, 0xf5132b14f3f5f4f5U,
  0xf3f410f4f4def5ffU, 0xf4f5f3f5f5f3baf4U, 0xf3f4efe7f5f5f5f3U, 0xf3f3f4f4f4e6f4ddU,
  0xf4f5f4f5f3f5f3f5U, 0xf4c4f0f5f4f4f4f4U, 0xf4f5f4f4f4f3f5f4U, 0xf3f4f4f3f4f4f5f4U,
  0xf5f3f4f3f2f2fef5U, 0xf4f5f515f8f4f3f3U, 0xdef3f4f4f3f4f5f4U, 0xe7f7f3f415fef3f5U,
  0x7ff4f4f4f5f5f4f5U, 0xf3f3f9f5f4f4d3f4U, 0xf3f3f3f3f2fef3f5U, 0xf5f4f3f5d6f3e327U,
  0xf5f3f4c8f5f5f3f5U, 0xfbf5f4f3f3f5e7f4U, 0xf3f6f5f5f3f3f364U, 0xf8f4f5f5f3f401f4U,
  0xf8f4fff4f5f4f5f4U, 0xf411f4daf3f324f3U, 0xf0f524f4f341f6f3U, 0xf4f6f4f3f3f4f3f5U,
  0xf5f6f5d34df4f4f4U, 0xf4f5f5f509f5f5f4U, 0xf4f3f4f5f4f6f307U, 0xecf4f4e3f5f3f4f4U,
  0xf3f4f3f3f5f6f5faU, 0xf418f1f4f4f5f5f3U, 0xedf3d3f5edf5f3f3U, 0xf349efdaf4f5f3f5U,
  0xf4f5acf4f30af5e4U, 0xf5f5f4f4f3f3d4f3U, 0xf6f5e103f4f5f5f4U, 0xf3f3f4f3f5d2f4e5U,
  0xf3f5f4f5f4f5f3f4U, 0xf5ed3af5f4f3f4f4U, 0xf3f4f4f4f3f4f4f5U, 0xf5f3f4f3f4f4f5f6U,
  0xf5f5f4f3ecf8fbf4U, 0xf3f4f5ddf3f3f3f3U, 0x11f3f4f4f4f4f5f4U, 0x2e9f4f50ce5f3f5U,
  0xe9f4f4f5f4f3f4f3U, 0xf3f4e5f5f3f4bbf4U, 0xf3f4f3f4f429f3f4U, 0xf5f4f3f4def32404U,
  0xf5f3f4bff5f4f3f5U, 0xd3f4f4f3f4f3f9f3U, 0xf332f5f2f3f3f324U, 0xdff4f5f4f3f3eaf3U,
  0x9f5fbf4f5f3f5f3U, 0xf4f6f5d9f4f412f3U, 0xdaf50cf3f331f5f3U, 0xf4f5f5f4f4f3f3f5U,
  0xf5f5f5ad4bf3f4f3U, 0xf4f4f5f426f4f5f3U, 0xf3f4f4f5f40ef3efU, 0xdff4f4fbf4f4f5f5U,
  0xf4f3f3f4f6f4f5c9U, 0xf4f4f9f4f4f4f3f4U, 0xf2f3a6f504f5f3f3U, 0xf40fc708f4f2f3f6U,
  0xf3f4c0f4f5cfef06U, 0xf5f5f3f4f4f411f3U, 0xf4f5f3eaf4f4f5f5U, 0xf4f3f4f5f5def41fU,
  0xf3f4f4f3f4f5f4f3U, 0xf40beff5f4f5f4f3U, 0xf5f4f4f4f3f4f4f5U, 0xf3f4f4f3f3f4f5f5U,
  0xf5f4f5f323ecf9f4U, 0xf4f5f5eaf6f4f3f4U, 0x22f3f5f4f4f4f5f4U, 0xf9fbf3f40edff3f5U,
  0x32f4f4f3f4f3f4f4U, 0xf3f4e0f5f3f4adf4U, 0xf3f5f3f4f412f3f4U, 0xf5f4f3f4cbf3e4eaU,
  0xf4f3f3d6f5f4f3f5U, 0xe5f3f4f4f5f3f1f4U, 0xf323f4f4f3f3f3f3U, 0xf2f4f5f5f3f4f9f3U,
  0xfff5e4f4f5f4f4f4U, 0xf3e3f3f7f3f3f6f4U, 0xe9f51cf4f32df4f4U, 0xf5f6f5f4f4f4f3f5U,
  0xf5f4f59429f4f4f4U, 0xf3f4f5f40af5f5f4U, 0xf3f4f4f5f3e5f3e6U, 0x38f3f4ecf4f3f4f4U,
  0xf3f5f3f4f5f5f4c3U, 0xf4dcfcf4f5f4f4f5U, 0xf9f3c1f8e0f4f3f4U, 0xf4e7dbeff5f6f3f5U,
  0xf4f532f4f4f9f6d4U, 0xf5f4f3f5f4f309f3U, 0xf4f5f3eef4f5f5f3U, 0xf3f3f5f4f52bf3c8U,
  0xf3f5f4f4f4f5f3f4U, 0xf4cad0f4f4f4f5f4U, 0xf4f4f4f4f3f4f4f5U, 0xf3f4f5f3f4f4f5f4U,
  0xf5f5f4f3dcf9f3f4U, 0xf4f5f5f2f7f4f3f4U, 0xd6f3f5f4f4f5f4f4U, 0xaf2f4f424f4f3f5U,
  0xe8f4f3f4f3f3f4f5U, 0xf4f51df5f3f58bf4U, 0xf3f5f3f3f416f3f5U, 0xf5f4f3f4d1f308feU,
  0xf5f3f4f8f5f5f3f5U, 0xf6f4f3f3f4f4f2f4U, 0xf30df5f4f3f3f3e8U, 0xfaf4f5f5f5f502f3U,
  0xf0f5e2f4f5f4f5f4U, 0xf334f41ef5f3dbf4U, 0xf7f500f4f3fbeff3U, 0xf4f5f4f3f4f4f3f5U,
  0xf5f3f5a4fbf4f3f4U, 0xf3f4f5f4fcf5f4f4U, 0xf3f3f3f5f4fef4edU, 0x50f4f414f4f3f5f4U,
  0xf3f5f3f5f5f5f4eeU, 0xf4fafbf4f4f4f4f4U, 0xf7f3f4eee4f5f3f3U, 0xf4ebecd9f4f5f3f5U,
  0xf3f51cf4f403efffU, 0xf5f5f3f3f4f2e2f3U, 0xf4f5dcfdf4f5f5f4U, 0xf3f3f4f4f504f4fdU,
  0xf4f5f4f4f4f5f3f5U, 0xf59f04f5f3f4f4f4U, 0xf4f4f4f4f3f4f4f5U, 0xf3f4f4f3f4f4f5f5U,
  0xf5f5f4f317f1eaf5U, 0xf4f5f501edf4f3f4U, 0xd4f4f3f5f5f4f5f3U, 0xf03f5f453f7f3f5U,
  0xe5f4f4f4f4f5f4f3U, 0xf4f5f4f5f3f48ff4U, 0xf4f5f4f3f509f4f4U, 0xf5f3f3f413f3fdfdU,
  0xf5f4f449f5f5f4f4U, 0xeef5f4f3f5f410f3U, 0xf5ddf5f4f3f3f3f1U, 0xebf5f5f5f6f4f6f4U,
  0xf9f5d6f4f5f4f5f4U, 0xf406f4f9f5f3f9f3U, 0xd5f5eef3f3fb07f3U, 0xf4f6f3f3f5f4f3f5U,
  0xf5f3f5b6fcf4f4f4U, 0xf3f4f5f3fbf5f5f4U, 0xf4f3f4f4f436f300U, 0xbf4f4f3f4f3f3f5U,
  0xf4f4f3f4f4f5f5e7U, 0xf5e7b9f4f5f5f4f4U, 0xe1f3fcf414f5f3f3U, 0xf536dcfff4f5f3f5U,
  0xf3f5e7f3f4d304f8U, 0xf5f5f3f4f5f2c3f3U, 0xf3f401f2f5f5f4f5U, 0xf3f3f4f3f515f3efU,
  0xf4f5f5f3f4f5f4f4U, 0xf4b4fdf5f3f4f4f4U, 0xf6f4f4f4f3f3f4f5U, 0xf2f4f3f3f4f4f5f7U,
  0xf6f2f4f2e0fc0bf4U, 0xf4f4f5d201f6f2f4U, 0x1ef3f2f5f6f2f5f5U, 0xdfa1f5f37ec7f5f5U,
  0xd1f3f5f6f5f5f4f4U, 0xf4f202f5f3f2a3f3U, 0xf4f4f5f3f215f3f3U, 0xf5f4f3f5e8f6fbe4U,
  0xf4f3f34ef6f2f6f4U, 0xe2f4f4f3f5f217f2U, 0xf3f8f8f4f2f3f41cU, 0xdf4f5f5f1f2e5f4U,
  0xe9f3dff2f5f1f1f5U, 0xf4f0f2f2f2f118f1U, 0xcbf50df3f1cfe6f3U, 0xf3f1f4f4f5f6f5f5U,
  0xf5f7efecbff4f3f2U, 0xf3f4f6f201f4f4f5U, 0xf5f3f2f5f5eaf5a8U, 0xb7f3f60bf4f6f4f4U,
  0xf3f6f6f2f5f6f5ceU, 0xf4c718f4f5f5f7f4U, 0xfff40dfddcf2f4f2U, 0xf545dcbdf6f5f4f5U,
  0xf3f5ddf2f2ee08e4U, 0xf6f5f5f4f3f5c6f2U, 0xf4f642ebf4f5f5f6U, 0xf3f4f5f2f70af509U,
  0xf3f4f6f2f5f5f2f3U, 0xf4cad1f5f5f5f6f4U, 0xf6f5f5f2f3f5f5f6U, 0xf3f5f2f3f4f3f3f8U,
  0x9c0107060de619f3U, 0x407078ec2cc81a7U, 0x607a6e8e6aad3c4U, 0xf78ebdbf95b6a904U,
  0x257f680a1c1209f1U, 0x7771cad2cff4c3b8U, 0xfde6c4c9f3afcf40U, 0x43170e815236f6faU,
  0xf40e2216191edddbU, 0xd30ae1d2ddd7eefeU, 0xfc0a1114fd01e7daU, 0x7f5cfefbf9fd0005U,
  0xef989c2cde0e13eU, 0x8f6f4faf6f0000bU, 0x7f420bac18cdd3a2U, 0x11f5f7fcfef5fe1aU,
  0x105f7f7fc080bU, 0x10481958e080106U, 0xff05080afdfafd02U, 0x10301fcfaf9ff01U,
  0xf6e000fdff0001ffU, 0x81fbf4f317141de5U, 0x3151a11080aa5c1U, 0xcab4afc09acfc914U,
  0xe3f818fd0afdf3d3U, 0x475979f5f302eaecU, 0x2f12dadad2b9ad81U, 0x37d0d481091c2f1aU,
  0xd0509f5fc021f2cU, 0x5000000f9010100U, 0xfafff8fbfd00fd07U, 0xf1e7e0fef5f7fdfdU,
  0xffeefffcf500faf9U, 0x7ffc19e402fef202U, 0x2edeff5151f1effU, 0xd681f301e5040820U,
  0xb151e25e1fcfd7eU, 0x30305071022f505U, 0xf05fa0403010407U, 0xf50a19163b6d6300U,
  0x1edea9d8189fafdU, 0xceb37bdfc365c9c8U, 0xa97ddaa370dfbf79U, 0x39c9c14fc8fb7fd2U,
  0x7f62f509007de2c5U, 0xec1012190f0d193fU, 0xf7fde2d6daf8e5U, 0xd6ceecd1d1eaccddU,
  0x4f9e6f3d196b2e3U, 0x30003f7fd0104U, 0xb02447f7b0f1c16U, 0xc1e6e4dffbf60bfeU,
  0xecb520e6e92305e9U, 0x3c81ed100501bb0aU, 0xb1f604f8a745e962U, 0x70f120104f7c981U,
  0x506060a0b21583cU, 0x91fa02fdfd0405feU, 0xfffefd0304049496U, 0xfefd000302818589U,
  0x201010201feU, 0xdc81a8030d090001U, 0x4d36e91a22f39192U, 0x71fe3e3c0dd0d017U,
  0x7f0b2bfcf5f8376dU, 0xdf11fce60dece31aU, 0x805e115edcf0ef1U, 0x9e319fde411fadfU,
  0xaec8cfd7cd374c3fU, 0xc2c8c4cf647f78e9U, 0xe80dfc38473dd6a4U, 0xb0906110df2eaecU,
  0xfd040b0300020109U, 0x1e81f9fe02050003U, 0xc0b506140fd50cbaU, 0xe6852ec281ede1a5U,
  0x92fee2baffc39501U, 0xeab8ac1aacd0d981U, 0xf6fbecef03f1f3adU, 0x47f2bfaec0500f2U,
  0xf4f0fcf4f4fb00f6U, 0xa8fc9dccfff6f1f8U, 0xf6c8bff5e5d8e1a7U, 0xcf72a6e6cd0ccbeU,
  0xb328687f276c65ecU, 0x4aeadc87392eeb63U, 0xea5243814a33f7d7U, 0xa529bf1becfe15b4U,
  0x205040001000a4fU, 0xfbfe00fd020504U, 0xa1000100818c88fbU, 0xb5fcd4ff02fe91a8U,
  0xfe0b130219cfe305U, 0xdc040c0ed1e905f1U, 0xfd1304e406fe81deU, 0x292a08ee00d7b7b5U,
  0x6d09e5fad1b7ad0dU, 0xf800fa03e8f43b7fU, 0x7f6cf811f811211fU, 0xc9f9e9ee285e6741U,
  0x6dde905fcf6cdb3U, 0x7063fdd6ecd5bcbcU, 0x7df1e3d73557500bU, 0xf490a1c7cad04a7fU,
  0xa6c0ecc5d3e803f9U, 0x1302fef414141310U, 0x28151ee09e40411U, 0x3f30a161608dafdU,
  0xfffffee30d110ff8U, 0xffffe792000004bfU, 0xffffe001ffffe26cU, 0x810ffffff87U,
  0xfffffe39000000cdU, 0xffff96f0ffffef58U, 0x168ffffe22aU, 0x6d00000131U,
  0xffffec2500005cefU, 0x80fffffffe2U, 0x2c8ffffeefbU, 0xffffc45dffffdc26U,
  0x5fdffffeeceU, 0xffffffe2ffffffb6U, 0x4e000006dfU, 0x6020000009eU,
  0x20202020ffffb52bU, 0x2020202020202020U, 0x2020202020202020U, 0x2020202020202020U,
  0x4040404020202020U, 0x4040404040404040U, 0x4040404040404040U, 0x4040404040404040U,
  0x2020202040404040U, 0x2020202020202020U, 0x2020202020202020U, 0x2020202020202020U,
  0x4040404020202020U, 0x4040404040404040U, 0x4040404040404040U, 0x4040404040404040U,
  0x7f7f7f7f40404040U, 0x7f7f7f7f7f7f7f7fU, 0x7f7f7f7f7f7f7f7fU, 0x7f7f7f7f7f7f7f7fU,
  0x404040407f7f7f7fU, 0x4040404040404040U, 0x4040404040404040U, 0x4040404040404040U,
  0x2020202040404040U, 0x2020202020202020U, 0x2020202020202020U, 0x2020202020202020U,
  0x4040404020202020U, 0x4040404040404040U, 0x4040404040404040U, 0x4040404040404040U,
  0x2020202040404040U, 0x2020202020202020U, 0x2020202020202020U, 0x2020202020202020U,
  0x20202020U, 0x0U, 0x0U, 0x0U,
  0x0U, 0x0U, 0x0U, 0x0U,
  0x0U, 0x0U, 0x0U, 0x0U,
  0x0U, 0x0U, 0x0U, 0x0U,
  0x8e9cf3e00000000U, 0xec21c1f4f7b5ef0aU, 0x7dd161fe00c34ddU, 0xf014042d8e0626ddU,
  0xacc09320efbfff4U, 0xaf17112f1bdee8dbU, 0xd510371fff110cd6U, 0xd9ece2b2aaf7f5f6U,
  0xe8db03f715e742d0U, 0xfd11fb0b1306db01U, 0xf0352a06fddfec14U, 0xfd2a09e91feb1302U,
  0xf3e9e3ec0de714f5U, 0xe8071c2d0825fd28U, 0xefd4130706f235ecU, 0x3bd4fcfcf805f514U,
  0x64225ecf425edf5U, 0xf0dbed071b380615U, 0x16e9c203f4e3e1e1U, 0xbc7140464fac808U,
  0xea16090900020f18U, 0x26f4fe0f05071a0dU, 0x1d1ef00befd8df14U, 0xeb2d0402edf5e517U,
  0xf80810d00a05fa13U, 0xfadef604fa0016ebU, 0xf8e8f3f218021218U, 0x12e7fb092e06effcU,
  0xb130ceaf408eb13U, 0x35da16ddfb081be0U, 0x25f4811305ddce12U, 0x1925191302022913U,
  0xe6e408eee90fc515U, 0xe0b1df9f5f51cf1U, 0xc11b9210bc6f021U, 0xf71a03f30df61509U,
  0xf1f60dddf91afe0cU, 0x4602070b09e910f7U, 0x1718fb0604e2e816U, 0x3140a0d01290bU,
  0xfdfc01db000bc112U, 0xf2c10211f6320504U, 0x3d4bd0819ee2606U, 0x19ff072e21f00cf2U,
  0xfe00ee2ef012b90bU, 0xea16f6f80e2c19f5U, 0xf0cfa2e40a431afcU, 0xfbbbfa1002f600f2U,
  0x104f6fff200060aU, 0x2b15011813bb1be5U, 0xfe2ff8f8efd2f00cU, 0xe42a0bfd18181713U,
  0xff0af6fd00f5fb16U, 0xeb0c03df02f1cdefU, 0x2108fcf606f70e05U, 0x111b041b27f50900U,
  0xfceff4db0a05f5f2U, 0xe40102130f1e0e08U, 0xfbd3f607190af7ebU, 0x13f40000f3f3070fU,
  0x112619280117e40aU, 0x4210ec0f2d810903U, 0xe52e2011e7cda90aU, 0xe85614d1b22a2f18U,
  0xf104f52217e1e107U, 0x18ffee02f1eff9f7U, 0xfa2a3cf6e91d02feU, 0xfc31ffe7e60b200dU,
  0xdfebfdf60bf619e9U, 0xfaf40807fe24fbfcU, 0xcee04040c1413e4U, 0xf1e80ded1af9fb12U,
  0xdf0525f8e31ce906U, 0x4f1ef709f130060bU, 0xfd07224f34a2cbf9U, 0xdfc11fdf41ff2909U,
  0xfeff19fc251be32cU, 0x3d070a0a070b151bU, 0x1ae0270a0a0deb03U, 0x1190b110b05e315U,
  0x6142704010af5fdU, 0xf3ff00f2f70eedebU, 0x5fc0508ea21ed17U, 0x1d2006b005040a14U,
  0x1c1f02e8fde40ff4U, 0x72f4dff81cd21cedU, 0x90ad80509cabcf4U, 0xcf53022a1ae22914U,
  0x1925e01b0214981cU, 0x770af8031bc8caf9U, 0xd525aff9e0ede5efU, 0xf47afb41eef11df0U,
  0xfc2903e11ebdc30aU, 0xf70f1719d8fe0e05U, 0xfa1b320d28eee1f1U, 0xea2708d61110fd21U,
  0xf9e9ed2505f53101U, 0xf0bda013909f9d9U, 0xd07f01eee04faU, 0x267f26250bf70e00U,
  0xebacb581ff4f614U, 0x182dd2fd0fe9e004U, 0x130135eadd04151fU, 0x31261747de0528ebU,
  0xe9fe0ae73506e6f8U, 0xf5fc03f5f8f23c05U, 0xf81a2204ea08da02U, 0x13f609d504fff508U,
  0xf8f506050015240fU, 0x1906eb10fdd60af7U, 0xf8fdf91bd6d3fb0fU, 0xc429fe0ee308081bU,
  0xeff200ff1308eb0aU, 0xf1c0df6090322ebU, 0x1fafb11f2e90203U, 0xeb0a0705ea0b1816U,
  0xeff216f01a0ff51aU, 0xef1b02f211060cf6U, 0xf3ed1011f6f5f8f0U, 0xf8f401e800fefe17U,
  0xfe020b190e0a0504U, 0xfb09fe050901f9f0U, 0xf107ffee0600f713U, 0x22700f80404f70dU,
  0xf804e7ec120011fdU, 0xedf629fef00c08f8U, 0xfbec1e0024ff100cU, 0x1af409ef1c0afa04U,
  0x11180a09f921feebU, 0xf1db09080a130c09U, 0x7fae6090ef9fbfbU, 0xfcf90af91a02d1efU,
  0x90905d3dd0805f1U, 0xf600fdfcfd120200U, 0x21105f80201ffffU, 0x5f903f5fbf5f5fbU,
  0x7feddc2ffe81ffaU, 0x15e9fa1e060ad633U, 0xff0d18fb020c04fbU, 0x23fdfcf7f8f703f6U,
  0x2d15fd15e9fa02e6U, 0x6f6f9f4090dc60dU, 0x111181ed000802efU, 0xf911fd0c06f7f6e4U,
  0xde04f323f1dc10e9U, 0x39f7260a0a07f6feU, 0xfb4403b91639fdcbU, 0x22f9eae302e61e04U,
  0x32a39cdf406fbe9U, 0x80800001e23f6dfU, 0x2fe6de4dfe97d028U, 0xfe8c1bfd220cd433U,
  0x13d7032a1cf50c06U, 0xa0bf60be6de28ebU, 0xe8df1c00d8183220U, 0x94bf217c9f42effU,
  0xe0cfd9f40fffe9f3U, 0x432a2e10fdb6ff20U, 0x3f38f1ef01e0deU, 0xa4505dddad42ce9U,
  0xd1e4cd8300dd00fU, 0xedb72904f714cbe2U, 0xce0852033909507U, 0xf0e822e97f06ee33U,
  0x17e7ed3db0d53210U, 0xfb1ac824f917d206U, 0x6f60301f7141c0eU, 0xa3a0815c3fd17eaU,
  0xd9d0eef20ef7f805U, 0xf51c0cfac42838e7U, 0xed1b3b1ddfe814e1U, 0xf0bf50ec6de000aU,
  0xdc3a12971a2ff127U, 0xf9dd23f2ef1444c9U, 0xf323a70e2dbfb8eaU, 0x11ab0e285906f448U,
  0x290e0202da220f15U, 0xd6f5fbd5fbecf9e1U, 0x5e9d23decec2121U, 0xf6f0ee1edbf413e2U,
  0xf61901e0fff41215U, 0xeee213f4fb3f2802U, 0xf60ecfdc34fe05d3U, 0x17d3020303d9f508U,
  0xd106fc0dee02f622U, 0x106ee01002202fcU, 0xf4e0cd0beef3160eU, 0xfde6fc1a0701011aU,
  0xd8ee1e0405f00aU, 0xd06f90c0ac8f4f8U, 0x3fd311ce1f60b04U, 0x11e6060f020e36dcU,
  0x3ebf7e013f1f4feU, 0xdbe42ff90136130cU, 0xf4eddf053c0a22e8U, 0x11b300e713dbdff2U,
  0xd91b0df9e3000b0dU, 0x2b1ce7fa1f01f0ebU, 0x6d3ca0de001fb0fU, 0xaba09182a07fcebU,
  0xf4c3e5c11ce0eb1aU, 0x315fd2400911522U, 0x2104026daf6060cU, 0xd81a0be9e31d2af9U,
  0xfef201f407fffbf5U, 0xe5bef6fbef5afceeU, 0x8f9d4da231b18f3U, 0x1ae5f60110e6daeeU,
  0xfe030e20c01c0117U, 0x1823e2e91adafef0U, 0x8e2b106e9f4e70aU, 0xe8340713fa060c0eU,
  0xd9ea01191f02cf16U, 0x270b0b280381fd44U, 0xfc175d03e8fcde17U, 0xe35107eeef211b0aU,
  0xecf2ce1d08010aecU, 0xef16ed052202fa09U, 0x13dd0b050313140cU, 0xf4ec071005f2ebe4U,
  0x14e7acd1081800f3U, 0x13e4f32a0315e226U, 0xecf6fc13ff111d25U, 0xe80515121301efb8U,
  0xfb09087ff81efddaU, 0xf4e70b19170cc4ffU, 0xfb1c06fa061f0719U, 0xe60109eff117d8afU,
  0xf09d511f0f313caU, 0x4ecf912fcf408e3U, 0xdd9030414061df5U, 0xea0c08261dfaead8U,
  0xfd1de25e926e020U, 0x2a27d61011e50a06U, 0xe914edf5f7090e02U, 0xc42fd13eaff17c4U,
  0xfedf17102ff3e900U, 0xff05091efa02f71bU, 0x6110d0205000dfbU, 0x200601e8ef07f4fdU,
  0xe90324e3fe040ddeU, 0xf4f002cff9330dddU, 0x16f9cef9080c00dbU, 0xcfecf2060204ef28U,
  0x3001ceee6faf31cU, 0xee110904e6f405fcU, 0xffea0c140af713f7U, 0xdf406f4f90903ffU,
  0x1e610da0b02fa0aU, 0x3dfff02e3fa1414U, 0xf408fef8190d09e9U, 0xf2fff6f6fa09e400U,
  0xf405153aee05fc0aU, 0xf507cdfaef0706eeU, 0x131b07d5d316f7eaU, 0xff25f409bd0ce409U,
  0xdcd12ffef2fd1900U, 0xa002ffdd5102c09U, 0xe72eefecfcfaecf6U, 0xe7090aea0908fb1fU,
  0xdf184fb809ff1102U, 0x2717f8f74cd3f902U, 0x50cd23bd6b5d811U, 0x52300c308020315U,
  0x5f2ef1100e8f125U, 0xe0f60c16f208ff14U, 0xd8ff22e9071f31ebU, 0x13bac8dca7fae4d4U,
  0x13fddebd060034d8U, 0xf6950efca41840f4U, 0xfcc7b2f139193de5U, 0x2ae9eb3519ebdae5U,
  0x1420e0bbdb34cd16U, 0x2fe5192623f81bffU, 0xcb7ae080bd0f907U, 0x193a0d0ee4050b07U,
  0xe1ed7b6c92e812dU, 0xe4aef515fdffc82aU, 0x221817d70d282217U, 0xf99d07e80cf6eecbU,
  0x16f5d847a1f635e5U, 0x18f7e3e80df2d5d2U, 0xce48306021d1e0eU, 0xe6121325010a0fd4U,
  0xf6d3e724f0e9efffU, 0xfe0e061b14f8f505U, 0x5ede71b01011820U, 0xfd3a0412fc0301edU,
  0xe6f91af5160800eaU, 0x2e5ff09cff001e9U, 0xf5d9dcfc0df7172eU, 0xd8ee06152a0ef10eU,
  0xeee91cd10314e013U, 0x662cd00bead93d03U, 0x608cf0ccceae40cU, 0x826ed0cb8183419U,
  0xc103cf812517b034U, 0x45f8402aed271032U, 0xff05000f21e0fbf4U, 0xa1f0ef0eff64922U,
  0x1af721d10b12aaf4U, 0xeedefcfc120a0cddU, 0x19f8eaf61f09fa1aU, 0x2f30bfe2b080b0bU,
  0x1dbf3f5daf4f00fU, 0xee13e0010ebb07d6U, 0xf8f50cf7e6fb1003U, 0x21fce9cf0ff6f9U,
  0x8f7b9072609030cU, 0xe0f4051bf70cf8fbU, 0xfaf63316fd1219ffU, 0xfefc0e1e2afffcfeU,
  0x2207113dfb20f7f6U, 0x719e9011e0cdd00U, 0x71300eb251d14e7U, 0xc9fefadbfdf6e5U,
  0xeaf6bc3f00ce14dfU, 0xf005f70b0f0efd2cU, 0xf6011cf91d1d2ee2U, 0xf5cdfcf31c08fbd0U,
  0x12e5c62f030d01e4U, 0x5e9d1160f2be1fcU, 0x1f20fe9e9292d04U, 0x25060f2ff5f5dfe0U,
  0x15642a4f0f4ef04U, 0xdb944af5d1d5e7ebU, 0xa2af8f35304d5e9U, 0xda8115b561edb32fU,
  0x31d9363096ac380dU, 0xe01adafa14e8c9f9U, 0x5ddb757f5ddf1f4U, 0xec32e4fbaf0ef2dcU,
  0xbbcef00c05ecfe08U, 0x73808d1182f22U, 0xf308571fe4f500e5U, 0x35180af7fb173a03U,
  0xe4f6fcdf062ffdeaU, 0x23f9e12809f4360fU, 0xfe46f0cafc02b6fcU, 0x2b24f9df26e62545U,
  0xc1d1502fbc1f8edU, 0xeef8cfd5fed8e1d2U, 0x3810c20decff1b1cU, 0xe01a08191d1620e9U,
  0xe0b9dbe5f3e22e0dU, 0xf6fbf30e0d0b1c31U, 0x5e70d25fff6f806U, 0xcbb00c3af0062304U,
  0xddbc0f5f0b45cf0bU, 0xee2bf1261edb0711U, 0xd5292e0de3f0eefbU, 0x633205f3bffaef09U,
  0xffd5d4652ff91ff0U, 0xe120a291dc2e5ffU, 0x9f54de5071a1206U, 0xef00710f10afadeU,
  0xac3caff0c0606ceU, 0x9080c220b0a0d02U, 0xf6b0f629fceb2626U, 0xe3cd0a392307ebe2U,
  0x5b1f0c5cf540b8f9U, 0xca03cd15172b22f4U, 0xc070f0dee0cfca7U, 0xf51718f2ebf803d0U,
  0x3009092d08d80ff1U, 0xff220d142639f9f6U, 0xf71411e5f413f211U, 0x605fb21f5092dU,
  0xd00af20c13def7f9U, 0xddc1becbeebf5ffU, 0x200fceb070a0d4fU, 0x2cf7040d22e30cfdU,
  0x2122f297031312ecU, 0xf9bb0af427f7f7f0U, 0x312e1eb07541f81U, 0xc7aef809f5f4c5cdU,
  0x7b203e49b0e421d2U, 0xd5feac0435d5d4ceU, 0xeeb0d35800ceecf8U, 0xdabcbdd2b00d1dc0U,
  0xf0c40c61f1922c0eU, 0x171ffd2510ebcc0eU, 0xde215629f605f13cU, 0xd0c09e1ed0a111eU,
  0xff1ac7ee19edf3f7U, 0x2a0bd8ebfe3325fcU, 0x171df8be0f21f3acU, 0x2849f41ac4ff45e3U,
  0x1b36fd0312fff708U, 0x1dff18c00afb25bdU, 0x5eed1fa1e15eb0fU, 0x182f0e1b2702eae8U,
  0xf6e7092220f0f01eU, 0xa06041626c4d9f0U, 0xccd22e2d11f0fb4dU, 0x3a2101e5f11af9f3U,
  0x4fe171718040c15U, 0x211041004f0f7f7U, 0x41321fa0805f70bU, 0x1d1f07de06010709U,
  0xf0905170df9fff1U, 0xdf90302ffebf300U, 0xfdfa18f508f8f802U, 0xf90a100919f9f012U,
  0x3edef1bfa12f50dU, 0xf001edfb0af6fcfaU, 0xfd0101e3101504f3U, 0xf808ff12eef904f8U,
  0xd7170a81f8110ef7U, 0xfcfbe240fbf7c826U, 0x22b2515ed1ae80aU, 0xef1104e4eb0cf4e4U,
  0x12f1fccefdc824aaU, 0x3fbd51a17fbba1fU, 0xfc08011de410fa06U, 0xe0f306e50002ecd6U,
  0xfdf3ee4c07d4118eU, 0xe109fb1d0414d40bU, 0x5ec3401ff191106U, 0x5f60315f2fde6cdU,
  0x29d5072b061515e5U, 0xe509fd21f4130015U, 0xf6fa14020c0308fdU, 0x11121314ed0afdf0U,
  0x13150015151707fbU, 0xf805093a0d0afa3fU, 0xf1fbe20d0dfff6f7U, 0xef118ff1cf8fcfaU,
  0x2f5fe40fc0200f9U, 0xf1fbec251005ed00U, 0xfdfdfdf7021b0706U, 0x14f5f702f6fa02edU,
  0xfcfbfa98f9f421f1U, 0xf50bf60d100cfc0aU, 0x530af7f5ee06f6b2U, 0x238ff4f8021dd5faU,
  0xfacd0cc9d9e503f9U, 0xe90d061a18ebfb00U, 0x370ff70fe4d8defeU, 0xfd1100fa0401210fU,
  0x4f40781fcfee20eU, 0xf3d5250e00331306U, 0xf1e6f12b0fcf096aU, 0xce0013051cf8f201U,
  0x1914ffc3f91de307U, 0x40ae3fe0921f20dU, 0x20f5f6fffe0df4b3U, 0x13d406f60021ecf4U,
  0xfd0a08efeee814feU, 0x607eb121cde18f4U, 0xf40e0ce2fc1fe5e6U, 0xf3f9f8f9f901171cU,
  0xfe1500a0f4fffe0cU, 0x6d708d2f7f7dfe8U, 0xc8f8fa0f030cfa49U, 0xcce1ea1b0ee2fcf2U,
  0x51cf602000cf806U, 0xfffdf3fcfe31fd04U, 0xf2f9ecf3140ffac6U, 0x2eeb0d000f1cf3f4U,
  0xeed80d24fb030a01U, 0xf605dc0114e703edU, 0xd817fbf5f01a13eaU, 0x182004f6d200ffeeU,
  0xfbdff09a03fc1603U, 0xffff0adefaf2f5feU, 0xcb031d05050d0e43U, 0xe4f6f80fe0e101ecU,
  0xe7eeff1318f8f9U, 0x481807fb141d1800U, 0xecf018241dda20fcU, 0x49d9152c19fac6eeU,
  0xddfef5140f29ca1aU, 0xb01ea08fddb12feU, 0xcdb21e4fd323014U, 0xebda0b2e05f22be1U,
  0x20e0ef27fc05ffe9U, 0xc90ce30401f8041bU, 0xf70e2df1ed150001U, 0x35e0fe03eb03f0edU,
  0xf50027caf5f913f0U, 0x12be121810f553e8U, 0xf6c09fd71caabce1U, 0xedd112f3c8f72c23U,
  0xe8fc15fcca308144U, 0xebf5f101ffff3befU, 0xeee9af0505e5e403U, 0xd20ad6f8f5f42156U,
  0x112d781fd130e0eU, 0xe8cefcfef12cbb20U, 0xb1408faff2e1dfdU, 0xfed3cf09a20be3ceU,
  0x9322f06d9ea40d5U, 0x80bfa191f1b07e6U, 0x1f110a23eff9eaf0U, 0x47211fe72600edf9U,
  0xf1e516e00802f4fdU, 0xecf90e09fcebf0f8U, 0xf34e6faf8fadc06U, 0xfeeee5defd02df08U,
  0x1bd0e80903d947fcU, 0x8edf7f2fedce114U, 0x1911e3d1fb16fd12U, 0xf2eefae9011411f0U,
  0xc2dfe0ff1e61f00U, 0x2fb30020807f1efU, 0xfdfed52529d1dbe7U, 0xcf1a0bf51ff00a03U,
  0xeaefe4e5ed0d0330U, 0x3b11bc1004e80500U, 0xd1500deee06dafdU, 0xf200a30e7003001U,
  0x6e100f12125edfaU, 0x5e3eff7f21a28f1U, 0x18f0fed71302e302U, 0xe6e6ef3ae2131818U,
  0xe5722ef3e50c2806U, 0xfcc13cff303c05c7U, 0x1025ce0517f6b710U, 0xd5d30a9557eb0c36U,
  0xce72625c7930614U, 0xe11fd80d131be0b6U, 0xe5e58139d40119faU, 0xbe5d6d3b8ffe9c7U,
  0x1f0e1131ef21efdU, 0xdb0a01f1e3fd0638U, 0xdaf216f4fe1118feU, 0xd4f3fd2fca0befebU,
  0xef0f0d180d2e02c8U, 0x191f0613f7f71506U, 0x2d2619041801f20cU, 0xb4f003d605e1f802U,
  0xec120de608e20df4U, 0xfcd2ee27fb31e6d6U, 0xed240cefff221308U, 0xffbe0dcd18e51409U,
  0xfa23fd36f2b424e2U, 0xd8deef41061dd139U, 0xfbfb0be6fd271efdU, 0xdce71d0b0b00d7e1U,
  0xf9fb0405e0ee1edcU, 0xf212d31d1dfddbe8U, 0xdd063a07fe0e1bf8U, 0x93f07e8c004fb02U,
  0x5d5c88122fd15dfU, 0x2a06f34bf8f39914U, 0x130c4c24f000f01aU, 0xce05fdd9d31018dbU,
  0x52dde08f17e5f3b8U, 0x2cf9204c28efab3fU, 0x371fee1200ecfe06U, 0xb52f1a06df0420abU,
  0xedf41e0ff0c70799U, 0xf00006ffff1bfff6U, 0xeaf108e60409fef5U, 0xdf715f921fcec1cU,
  0x1181bdafe070f1aU, 0x1113f83109fad515U, 0xbeaf906fbf3f313U, 0x1be71df72afcf409U,
  0xfbfe0b0af0f7f914U, 0x10f001a0900ea35U, 0xfd0424fe06f50107U, 0x1ee0509fe071913U,
  0xd8ee0bf1fb09df12U, 0xfbd3fee8034034bbU, 0xe6f3dcf3fd00fbe6U, 0xe9efee030dfb0123U,
  0xeb0010e2efff0110U, 0xf0daf3ccfbf31fe3U, 0x11eeb9ddf4100604U, 0xf2e0f716e4f3fd1cU,
  0xd3f3f6d9dc0e070aU, 0xf6e7fcefe1e259f3U, 0x2f3f0f714080f00U, 0xe0f5f915eaf3fd16U,
  0xeee302afa27ea10U, 0x226fde1000304e1U, 0x1923070ae11bf908U, 0x1231f1cabb0e13e6U,
  0xc8ecc0b32116f70eU, 0xafe40f5bf372444U, 0xdb8e42512fdb1cedU, 0x3a810eec3706eb1fU,
  0x100cf33d0348ece8U, 0x9d2d1f9220af8f3U, 0x15fbbfc4e34923e8U, 0xff1902282002ddd9U,
  0xdee6dcaec0fbe91fU, 0xf60002faf9d21822U, 0xdb072e2118f71809U, 0xfae4fdc314eb16f5U,
  0x1124c9edf717ffffU, 0x2391e21400fcf9eaU, 0x23aee1c01d1615f2U, 0xe0d2036e4ef0eddeU,
  0x29ef018b711c628U, 0xf138cd0006f603c8U, 0x1110c800c806120eU, 0xb3ff315af123cfeU,
  0xf10e0a1c39ddee11U, 0xa0ee72825e90032U, 0xfe2b02f802ec0c09U, 0x3605ed0cfa0af8U,
  0x1d21132412f6e9ffU, 0x414f5fb1500cedbU, 0xa23ead9f40506ecU, 0xfa0ffd23dafdfcf9U,
  0xfbde2af327d200e1U, 0xeb081c1cf7ef0b1aU, 0xe604331d02e5ef1cU, 0x8fd02ff080f011eU,
  0xe315fe0200060aefU, 0x2d03fd10e9fb1d11U, 0xfe0a17341ed206feU, 0xddd91514070107fdU,
  0xd62318b3f112c80cU, 0x51ddc3e4ea2e07deU, 0xf7f5e40b00cef9e6U, 0x15df053509fafd27U,
  0xdbeb04ef122cc025U, 0x3407171100fb350cU, 0x7e0d226e2d8fb0fU, 0xdd0122d13090216U,
  0xf90ff5da191fd306U, 0xce51410fae203f0U, 0x524da0508f1e3fcU, 0xe8e007f30c0d0d04U,
  0x8d51cab050808faU, 0xf3f5e51c1df1d7U, 0xef1cbc00f4e5cdf5U, 0x4bc0107dcfefa0eU,
  0xf8bdf8ca23ed0f1aU, 0x328f0030b0910f1U, 0xeb05deebeedb0a14U, 0xcfd0b05ce09fa13U,
  0xdeae6050bede6U, 0x3314002009d5f620U, 0x1d1109d91016ca02U, 0xf1ed00f50c04e9feU,
  0x1f206a7f1fbfc0aU, 0xe2d10b04f209ee05U, 0xefbdf1414f9f7f5U, 0xe9a3f1a721f6f7ecU,
  0x23f3f781d5da34f0U, 0xe20a1e332310df34U, 0xacafc3904fd0913U, 0xfec810df0f01d9e1U,
  0x14fd1a06fff0fbfcU, 0xe1f7edfa16faf4eeU, 0x3ebe90bf5fd0f03U, 0xeff8070c05f3dff5U,
  0xcf0065900ef110cU, 0xfd28b0271fbce207U, 0xe52941fec7f6eb08U, 0xf56c07e9810c1f17U,
  0xf2f5cd212dbc0ae7U, 0x2afc1015e9d4f838U, 0x221f25eef7eefdf8U, 0xa0c171e0e241dffU,
  0xe4090f03f4fc08dfU, 0xfee41ae9042518ebU, 0xf5ecd1ea26160904U, 0x3cf000c0decec19U,
  0x222a2c26ec140702U, 0xf90d050403319df8U, 0xfad2f22d17030a0dU, 0xe04ffdc180602d8U,
  0xaf2f6301fe22103U, 0x117f84006efdc56U, 0xd8ff500fdc0c04feU, 0x2a3606ded11502f7U,
  0xaf306bb1807f9cdU, 0x1dc05e9ee1c38efU, 0xe4f6ecec26f5f8fdU, 0xeddcf31408e2f2ebU,
  0xf915f8bef82cf71eU, 0x1eafdf30100fbf4U, 0x1e0ed0f818f0ea00U, 0xf1eb0d0318f3110aU,
  0x160afc15e7020c09U, 0xed00f70a1111e913U, 0x1cf8fc0feb04fff6U, 0x40d07fd040dfee2U,
  0x792a1627f3ff1304U, 0x33f4bfff16d9c707U, 0x1402f60ed5e203d4U, 0xf27f1b550c07e7ecU,
  0xf1deba1ff4a2f9f2U, 0x5202f31921c5e938U, 0x1373108daed0603U, 0x9b5412ffdbfe0bfaU,
  0xec03cd0d09f2e8edU, 0xf3f1110df90cfc1aU, 0xf32032e709fc0ef4U, 0x6ea0df710f4edf4U,
  0x5c3b312cff0e17e9U, 0x708040f2316cfccU, 0x6b70027f9ffe6f7U, 0xfc391c190900ffeaU,
  0xe2ee2e12d5f1edU, 0xf02041304d2a912U, 0xe6f73a18f5ed0215U, 0x240f07c1000c14f5U,
  0x717010f0d24ede8U, 0xf4fe03170807df30U, 0x250a0a04f20bU, 0x18d211ec17fd01f3U,
  0xf0242c15031311f3U, 0xecfcf7f7041adcecU, 0x19fffe09f707e605U, 0xd9e60e051701f417U,
  0xf3fd0d06f3e715f0U, 0xf60e0c0f080a100aU, 0xfaf6231b13ff0608U, 0x50207ecfeff08f9U,
  0xf910ffd8151ffe17U, 0xf6e5100800250d2cU, 0x6fa0ffa2903f70dU, 0x16e50bea15f7fdf3U,
  0xf824f850ed2bffeeU, 0x5fbe6f506c7defbU, 0x14fbe5fce819e204U, 0xe93efd0bffeff506U,
  0xedd7f8e6f9dc23f0U, 0x162534f5f3e1fdefU, 0xed1a1d0710e9f6fcU, 0x1720fef913ff271dU,
  0xf9f5ebbe160a000bU, 0x7e6e5fc0e110913U, 0x1100e7e80bf7fbf9U, 0x26eafe1a0701dd12U,
  0x1e1a14ebe621fbf7U, 0xd404e7f8f0e5da01U, 0xef0d25e9f1f50bU, 0xe3fa00fe0206f8fbU,
  0xdaf7d2f21af11503U, 0x5d11f62d53f848fdU, 0xe55249fedd06bc0cU, 0xd2250095c6042029U,
  0xf03e04ce22dbe803U, 0xf6e014dcfff1e5baU, 0x22f7deef28f11aebU, 0xefedf7f724f00902U,
  0xdafd1eefeee52406U, 0xdaec17faee24d3c6U, 0x2ae9e1201f0de010U, 0xe8e7ff22200dec09U,
  0xf32242fe92914f5U, 0x251de6041edc0fe0U, 0xdf15ebfbe7e9a913U, 0xec7fffc6ea21f2f0U,
  0xe5fef8e92dd91039U, 0x2b12021cedfe2a21U, 0xe2100ecb250ce7ecU, 0xef31fff80007201cU,
  0x250700fd0e0411feU, 0xf5fd21fdf00ef2f8U, 0x2701fc04191410f1U, 0x18807f7ff19eec8U,
  0x1d002b50e1fc08faU, 0xf80ddffa061ceae5U, 0xe90b231ef1f5052eU, 0xe6deffece309d1e4U,
  0xd8cb0a4f0bf01715U, 0x150eccef0fdb3604U, 0xb01d1fe2d6120efbU, 0xb65ea1eabf91e01U,
  0x15e1c3b736f70308U, 0xf1db5439041cde4fU, 0x501912fc18f0e9cbU, 0xf0c009da2026cef0U,
  0xf4472416bd08fbbbU, 0xfed70ae4d24ae0e5U, 0x2be50a203acf1620U, 0xddec1dff5b0edbc8U,
  0xdcc82707bcf31717U, 0xd221c3f316c65af0U, 0xda03fa0221ec0be4U, 0xd423ee118aff2514U,
  0x2048f6813515003eU, 0x15f6252c0f3bf555U, 0x2bedc618fbf2d4e3U, 0x4ed1afd2b2906cbU,
  0x29500859cb01fc06U, 0x2c09fad2f638dbf3U, 0xfdfba402fdf90236U, 0xca23fd2808fedec1U,
  0xcbdc02e3f1ddeb1bU, 0xea01f4e6efe255efU, 0xe3f4da3011e01a04U, 0xe7c8fd17f3f90a07U,
  0x1f101b0a1b260621U, 0xc5fce0fd1014f10eU, 0xee0efdfe220307U, 0xd0de02e605fccefaU,
  0xfdf60d1ee3ee10ebU, 0xa120cfff5f403U, 0xf7041310fe00f707U, 0xf50802e1fa05dffeU,
  0xe8f416fb0a010401U, 0x19fb0af9020508ecU, 0xc0501fdf7eaeaU, 0x21107fb0f10fb0bU,
  0x18f8d6c00309ff11U, 0xf6b6fb1bfe17bd06U, 0xf220ad80e39150bU, 0xf8d1cb0fdff6ead0U,
  0xfb01f50ccdd740bfU, 0xfbeeffe6fe16c6f7U, 0x5ff81ff030f0f17U, 0xef2eafe06f104d5U,
  0xff0007ee01e80aefU, 0x1110f900100116ecU, 0xf7f4f80401f2e8f4U, 0xfb1405ff16070c13U,
  0xfeddf2f60d0eeb1eU, 0xfd15f60bfee92013U, 0xfa06f2ef0be6f2fdU, 0xf4160b0bf1040313U,
  0xf3f3f6fd120bfb1fU, 0x5010efae81b0cU, 0xfe09fcf5010d0eU, 0x30f0304fb030a0eU,
  0xf00cfcf5060bf408U, 0xfb00fdf00c0f0df7U, 0xbfcf90505f5fae6U, 0xf105070dfd0c0105U,
  0xf401f12dfe1bf10bU, 0x2f02fbf934dcfed5U, 0x2ee1b1bf5f1fef7U, 0xc43e0b11f4deef02U,
  0xeebe020a0ff2d115U, 0x113f3d2eb1318f9U, 0xe5ea25e301132c16U, 0x31a180ed3ede701U,
  0x19d8070f1802350dU, 0x211be8250c150319U, 0xe8f716fa08f2ddfbU, 0x7f40f414d80d1302U,
  0xfe01fafd1efee2f4U, 0x1fbeaf12a020f0cU, 0xd4363121ccfeffU, 0xd0fafdf2f9fb18fdU,
  0xdfe709f2edfaf50dU, 0xc71dcaba14541204U, 0x1324103351f1004U, 0xf3c7270b0d0a1506U,
  0x14da0ded13f41ffdU, 0xcc06d30dd0420edfU, 0x1d0a091606071405U, 0x4ef93b05f20107dbU,
  0x2be0e4def610f1efU, 0xf2111fe2eaa31e03U, 0x13e9f321e80c171aU, 0xbf16ee0bc8da0c02U,
  0x26c90ae40113f601U, 0xc1212b6eecb4df6U, 0xdb3b60f2bcfaf8U, 0x9deef8ddf20112fbU,
  0xf920bcc0dfae209U, 0x12fd3d06e4ce1b32U, 0xfbf64d54dcedebebU, 0x9a2aebd4df08510bU,
  0x4956fafd0713e5faU, 0x26c2d31efb1d0219U, 0x290b0e2916e1f869U, 0x11cb12f119ffe0b9U,
  0xe91af135cac706f4U, 0x3ce1182a2721f812U, 0x318ed20eefdfe0dU, 0xef361c010e07e5c8U,
  0xeb0c01e7ed03d509U, 0xfe15f8f40c01f8e5U, 0x130f01a020285U, 0xecee060c08020e0dU,
  0x4f46f01701ff0f0bU, 0x16e22bedf3b30ef5U, 0x14e1b7f8120ae17eU, 0xc41d080728e0f8f9U,
  0xebfe0737f0e0d214U, 0xf5ea1cee07e3e6eeU, 0xd0dedaf6fedc0135U, 0xed30f2071c000b02U,
  0x7df0c0d1b19dc1cU, 0xe81fe40311fb09daU, 0xe8ee020204f9eca3U, 0xcb19eb0fdd080a12U,
  0xec11051a0bfa0d25U, 0xea12e5e3140d00fcU, 0xfe14ec0d0213122bU, 0x2009f7fce0e8f9f0U,
  0xfafaff200bf01211U, 0xdce7f528df02030bU, 0xde0618f6e71d17f9U, 0x48f2f5f700f5ddebU,
  0xf9ee1514fc0b1400U, 0xec16f3fc23dcfed3U, 0x11eff4efe724fa81U, 0xeb17ff07db14f101U,
  0xf201e6e60efb0e0cU, 0xfae00a0eeb200013U, 0xa0e01c5252913fcU, 0xfce1faf011eee00eU,
  0xb2e1031dffefafbU, 0x2cbf0eecfb26efe6U, 0x3335b9d12c30e2fcU, 0xdc0218fb2f05f403U,
  0xfd062b19c1d70bf2U, 0x1f18edd8121e00f6U, 0x5ed9f21f2d9ff18U, 0xeb1a090106040610U,
  0x11fae21e1d16e614U, 0xf51de8000a0103f4U, 0xfc0802fc0b08f6fdU, 0xf9170c12fafa09feU,
  0xf9f0f10408f10116U, 0x5120e51d0ed8f607U, 0xfe2736d701feea00U, 0xef8170303f01907U,
  0xf6df09fc2ce6f5fbU, 0x29f816ff18091dfeU, 0xf1f03912f9d5100aU, 0xeefe030b1306dff5U,
  0xf3f4e6d4180dd913U, 0xe1403fdf406fde7U, 0xf7ed0709e10b19f5U, 0x2210f71afdec10f4U,
  0xd0060de91913e119U, 0x56db331a00dc09eeU, 0xeadd220ef4e5beffU, 0xe8f20d0e29fa1619U,
  0xf0fa070ffb1f811fU, 0x2ff909182a060307U, 0xdcf7d402e9d1f2f7U, 0xd4d0ff1210a4008U,
  0xf512babbed0be708U, 0x4020413f716e232U, 0x10062d08f8180d12U, 0xc0fa14e4fcfe01d5U,
  0xdff3fab7fe17faddU, 0xd41a1f1a051adc22U, 0xe0d5312ef7f313fdU, 0x20c00e9e1eefaf6U,
  0x682526bb212513edU, 0xeefc0f2d1c15e0f4U, 0xfda1f25aea04ebfdU, 0xeee416f2050afcb4U,
  0xf6eecfb9fcd8ffe6U, 0x11c033ce2f7e750U, 0x61fe7fa11040c02U, 0xd81f0ce41ff0f8e6U,
  0xfee7f604070d06ebU, 0x14f8fe0c1af61705U, 0xc814121610faf900U, 0xe25eb11eee41509U,
  0x7ff0161f1d11e103U, 0x170201e917fb01daU, 0x1e70a15120013f7U, 0x14300a1917f803e2U,
  0x6fb0c2312dbf9faU, 0x5f9fd30ffe4e22fU, 0x27281ae40701fefcU, 0x20afc02fa0406eeU,
  0xf7fcff1af300faefU, 0x1423ed1e07f0090dU, 0x114f50101fdfc06U, 0x9100e1df5ff14fbU,
  0xf11ee1012e8eff8U, 0xd08effa17ef0307U, 0x27050ada0d031603U, 0x19ea091602101be8U,
  0xfb03075feff1eff7U, 0xdfaec04fac3e30fU, 0x217060ad2f202e0U, 0xf2fa04fff918f9f9U,
  0xd7e418f0f5f115f0U, 0x542624f9fd0a3f0fU, 0xca080219dcc40be6U, 0x2dec050bea005d1fU,
  0xf50fcf812b229b33U, 0x3dbfafafc25fcefU, 0x3f7dde5311f152dU, 0x6dd02f72d00e801U,
  0x30f5eb3bdffcfe07U, 0x3000caeee09ad0d9U, 0x2ffdf9e7f13111e8U, 0xfb2b1328e918f1e2U,
  0xf3cdfafff9eaf501U, 0xe9f42e1bf5f538d4U, 0xe6b62b4a11d125f6U, 0xebea0bea130b2036U,
  0x2927fc0102499ff0U, 0x4fbd5ed150ed7deU, 0x1d01ddf51826f714U, 0xbf9fe000afaf7f6U,
  0x2d6eb2aebd123f2U, 0x1d1700efdbef05e9U, 0x9f91a02ea0315f2U, 0x73f061fca0d1ef8U,
  0xd6fd2cc12411c811U, 0x8da1b22071b2ff9U, 0xddf9111a15deeb07U, 0xf4da05f43a0c0a22U,
  0x1e2bf702e22bd511U, 0xf9ed04e4041aaff5U, 0xf0f00fa09071022U, 0x1ee1f8eeebfb0adbU,
  0x6518c46cf5e61af7U, 0x38f8810a31a5b4faU, 0x4003e6d2de0e100aU, 0x333e106ad6f433c4U,
  0xeb9ca15f8c3ebe0U, 0x522e62f0ca7fe42U, 0x2c1243ebfd0c0408U, 0x3510261ddb0813e1U,
  0x371ddb3007e4e6dbU, 0xdf6041af2c51027U, 0x410b2ee71d0b1d0cU, 0xf80d0c03050726d8U,
  0x7c9d91defe7f9e5U, 0xef16211de3d6bb0eU, 0xd5ba2e24fb012ffeU, 0xbe01734d00709cfU,
  0xe2dc295d1d39fcdaU, 0xecf5093e061b9f17U, 0x8bf0704feb1c11e6U, 0xe3f0f9b1d60efbe0U,
  0x1203324308152ac7U, 0xf108e0220e1fad0aU, 0xc31a23eec234e6ffU, 0x718efc6d304ecf8U,
  0xcd2206d614d51ee5U, 0xfbd7f815e9eb161fU, 0xee041ef725f5f301U, 0x2cbf7ee23fc002dU,
  0xe95918f3da090d0cU, 0xf9c803cde243030cU, 0x2f0ba4f83202d3fdU, 0xe2d5fae139dffd30U,
  0xe9123600b7f0f32cU, 0xf7f2f7de0c23f5b6U, 0x1d08d603ec09e804U, 0xfdf2eccfe1f8f816U,
  0xf00932e014fe1438U, 0xe8d3301aeff5f4eaU, 0xb4c0be74406ef16U, 0xfa2eedd5e8f6f219U,
  0xea142681c5df15e2U, 0x13c1c9dfeeed0cf4U, 0x1fde97e03cdf0037U, 0x6b1f8356af3f841U,
  0x28d5de7ccfe8f810U, 0xe41dd8ee258512f5U, 0x20f4e7ecfd1b28efU, 0x2b22f03baa1103d4U,
  0x7da3d411802f422U, 0x90ae51e0228f902U, 0xfd38fe00eff90701U, 0x413fde1fc08d2f5U,
  0x1aab51a0fea0df9U, 0x363f92b62921f5bfU, 0x6f601f2950d411aU, 0xf449f9759c021aacU,
  0xf49391f945fcc73cU, 0xe1162f12e2e9641aU, 0xd4c2683fe6043aeeU, 0xe5fedbf38c2f0aadU,
  0x4c19171f1c5710e0U, 0x8e30ffd364cdbf3U, 0xfd9ce00e0a2317e9U, 0xdfe310e0120307c3U,
  0x6f9d24cef04d6f4U, 0xfb1b10512b1eeadcU, 0xcfb61403f9162dedU, 0xfb1519f1e70b16e6U,
  0xe22810cf1f05e2edU, 0xdbb4fc32f6090455U, 0xa0a0fde36290003U, 0x5ab525c45704ebfeU,
  0xc0ec25e2dd171afbU, 0xc0d017d7024324e8U, 0x14e4fc1a3d18f707U, 0xed81fff70ff5e6faU,
  0x31fa0f69e13d0c07U, 0x13fbe7e61a38f5f3U, 0xe9e3f30901130f12U, 0x8e90a28fd0ae2d9U,
  0x11c9ea4b11f20eebU, 0x111f9efe8f115f2U, 0xfc0225f4f3110eeaU, 0xa23f619e81615f4U,
  0xed14e70202090c11U, 0x6cf1d310be8fd1cU, 0x211201c92f15f20aU, 0xfae9290a32ffdbf1U,
  0x7823114dc30f15e1U, 0xb03d91c3e11c0eeU, 0x22ddf610fefbfa34U, 0xdf0a303a190cfc9bU,
  0x121ef7590ca90aeeU, 0xe52bdf2d06d2d827U, 0xd225818e502e62aU, 0xed1513f4e20ffeceU,
  0x70b132d2ecb1dc8U, 0xf3ef12f132ef09U, 0xf92bf6e2f30cf6c6U, 0xae006f5fb02f4e6U,
  0x2cec0f36f4040e04U, 0xf812020e0e34dfe5U, 0xf8f80a04d21308fcU, 0x1f0ffff6e2fcf7f2U,
  0x4ced21420be012f2U, 0xf8131e1901b9d037U, 0xda0e3b16f713e2edU, 0xf42b01c7f01601e1U,
  0x11fb2d6405fb1af3U, 0x2afdd61739ece314U, 0x2e261023d9e2bc2fU, 0xc97f19d7e90a200bU,
  0xf81c110c08c0f4e8U, 0x17dcfefb15d5feU, 0xf71229ffea05f0ffU, 0x13fa11f0d8fd2e0fU,
  0x1bddf60b14e80df6U, 0xc8f0fa11fcf401eeU, 0xde0c13fbf21710f2U, 0x32c403e6e8f1ecf4U,
  0x17e4f4f9f3f91beeU, 0x191bdcf90ab7f1faU, 0x16de0a24e8e2f324U, 0xd5e0fe11a7192aeaU,
  0xf8c2df25ebc116U, 0xfb182120e1ec1325U, 0x4ea3914090a18f3U, 0xfbbff5001b02f913U,
  0xf902f7f7f72916e2U, 0xe2b10213e419f90eU, 0xdb0e95d82a3214e9U, 0x4c5e607e0dfd0e1U,
  0xde9e0fba8ff31efU, 0x1602ff17e1ac15e7U, 0x6e11f230df5171cU, 0x90d101ce4190c0aU,
  0xe90e04d90b1bd10aU, 0x5fdf824fcf50c1aU, 0x10fc2af1050ffdedU, 0xebe0000320fdfe0aU,
  0xf5000ae3eb11fafaU, 0xefcd01d91524f4ffU, 0xe105a2c91c1310d8U, 0xecbdf2fddcef07e8U,
  0x12f9f126ec0310f2U, 0xf719e11f05daf002U, 0xd034914e40819f6U, 0xdc0dfa03da0efbebU,
  0xd909f20315f104c3U, 0xfe0906ef0bd5e003U, 0x2142ff8f8171002U, 0x32af8fff3011100U,
  0xf4f107cc02f60ff1U, 0xfcce1bf4f230f703U, 0x414c3e7300f05faU, 0x10810fe319e0f813U,
  0x29ef093fdd0403f0U, 0xf605e219fbe4cb10U, 0x1f1172ed4020709U, 0xb2140106d71417ebU,
  0xfdfdf82108fb07e1U, 0x12b0a0e1001e908U, 0xed14261ce5f601ffU, 0x153406e3ef0e0a0dU,
  0xfffdfccd2e0804e2U, 0xbea20ffed301008U, 0x717f036f6f200U, 0xf0a716e624e8fc25U,
  0xfb030509e30df8f9U, 0xf9f5f5022102e7fcU, 0xbe6021cf70afb18U, 0x721030bfa0a0b07U,
  0x3f8faf6f2f705e8U, 0xff0303eef7f9e003U, 0xf51b10fc0208faU, 0x160f040d0210f4f8U,
  0xf404eae6090e00f3U, 0x5e1fcfae32c2a14U, 0xf907cbda2efb06deU, 0xffdbfd1617fbfa16U,
  0xdb050cc9e51df109U, 0xdfc2ce8f6130df8U, 0xf2fbf5ff2900e7ccU, 0x140f03fd06f5ff14U,
  0xf5fc1f9cf91bf21bU, 0xdddb48f5e32029fbU, 0xf8e6b8034feff4fcU, 0x40efefd2ffbff25U,
  0xe30e0b9dd430f40dU, 0xe50eeff41915eaU, 0x1ffa1012bfa07faU, 0x1e002e724ece114U,
  0xb050216ed15e024U, 0xfafac4f618f421feU, 0x8e7f6e1f4ebecU, 0x220fd0e0df70703U,
  0x11eec73f02f60f06U, 0xa0bba0316f702fdU, 0x1c270cf6ec23f909U, 0x2b35fc44030812ebU,
  0xf4dced2611dbe9fbU, 0xfc11e0e6fbe31fe7U, 0x20182af5ea0616f1U, 0x61a0313ec012afcU,
  0x3d00fc2d08f5ec0eU, 0x1310012ae6bcffU, 0xbf4110bcd180708U, 0x18151503e71407deU,
  0x54bcf24902ed06e6U, 0xf405f31f19ed9926U, 0xe1de4a2af8ff0a2eU, 0xe0f602dc81211bd1U,
  0xe5e3025109e814ccU, 0xf90322451ce3d53cU, 0xe6fd6e1bda16fb15U, 0xd61e11d8ef1408fbU,
  0xdefe04ae09eb0eccU, 0x2ee27fefd4bf114U, 0xfff7fa07d0f6e9eeU, 0xfc0c04e615f41c04U,
  0xfa2a15cbdd04ed04U, 0x81c01ee9e528160cU, 0xf2d6f0321deffaf4U, 0xf81a0eec11fbad19U,
  0x1205ffe9c115000dU, 0xd8ec03f30ff9f8f6U, 0xf5e4cb21d5f006faU, 0xfa0cfffe12f9a4f6U,
  0x10002e1e9feee06U, 0x504090e14ede4f0U, 0xf2e8fe16fbf50805U, 0xe3221efd0ff70501U,
  0xfd161428ea05f8fbU, 0x1feff00e1e00e307U, 0x272d1b31453a1a1eU, 0x322e1e08e815fce0U,
  0xf8140af8eefc26dcU, 0xaef04ed3529eff1U, 0x1802020cfffdf50cU, 0x460916ec1bf9f9f0U,
  0xcf0ee2bff104eb0fU, 0x8fc210fe2fdded8U, 0xef0eec01e6e2f7f7U, 0xd8fd12042007fd13U,
  0x3ddf3f8eb05ea12U, 0xfecc0cedf50501e9U, 0x21021dc29fe1609U, 0xe8f014faf117dc05U,
  0xdedfe0bcd01270fU, 0x1dceed317331ce1U, 0xfbf4d5f6bbfef9f5U, 0xf0e721f810f8e5fdU,
  0xe1defbd2dbfce40fU, 0x2bfd0ff6e1110811U, 0xdcfefee5dd1bf10fU, 0xe219f7f9fe110d14U,
  0xb2b4af0011ffbf9U, 0xd7c430e6d9122cc9U, 0x24eacf1d3ac3c4fbU, 0xdefe0e024f01db1bU,
  0xfdd6fe27eb081840U, 0x1f20b9f4ff011801U, 0xf4e6eaefc21bedf8U, 0x946f027baef1211U,
  0xfb0c1a00112a0108U, 0xc28c51eefe10918U, 0xf9f82a00caede819U, 0x166ffbf3cf15effaU,
  0xa02ee8a022f81cf1U, 0x48c9360702fe1f13U, 0xea5402e6322b81f6U, 0x4a7eabf24de2848U,
  0x41322233d7e1f9dcU, 0xef0008d52921a4b7U, 0x18e5e616fff9fef0U, 0x210f7f705e4d2c2U,
  0x38f7eb4809f22a04U, 0xdffedd000ff4ccf0U, 0xf5f10303f601350eU, 0x40c1c25f816edeaU,
  0xdcd896d505fb14eaU, 0x24320c4607eb074aU, 0xe43a4bf212100dfeU, 0xd0603cedf0f12f0U,
  0x2203fe1e18fdf9e4U, 0x8ebfb0d2dfbe6e7U, 0x2111e2ea1feeeeefU, 0xfbff11ee34f5fceeU,
  0xf0e8ecf6f1d51bfbU, 0x417fc0a0f0812f7U, 0xe4d91831ffeb1beaU, 0xf7f3fdf30bfa11f6U,
  0x1205c0b92f21ed08U, 0x30a4161eec11dc22U, 0xeffcc3423e190dU, 0xe0bfc0e2cf2d4d3U,
  0x282d0014ae05f3e2U, 0xdbd6f8ea1e15b8ebU, 0xfdfd81de2124f614U, 0xef204e91f01c0edU,
  0xb1b2505cfe022ffU, 0x2c09ea1bff1ff5f4U, 0x806e5f4ffd8f1deU, 0xf73715092cfa1f07U,
  0x2b120c1f0d06e514U, 0x28fed10f14fec00bU, 0x712e0f1fef7aa01U, 0xf942071302f8f5fdU,
  0xf501fd131dcdcf12U, 0x14ffe639ffe80f05U, 0xa0a19f801fcf70fU, 0x6fb02f2f60a2520U,
  0xe8f201f421f40b03U, 0x1ff6180af9e01ee4U, 0x1200efbebe7e8edU, 0xf2280c02140a1712U,
  0xef0518fa0107f0f8U, 0x5f91ee9f6edf1e9U, 0x903e222e5e1e513U, 0xec0307fa1c0cf121U,
  0xdaf70fe1f310f30dU, 0xa0a00f806eb1efaU, 0xfdfd2513def0df0bU, 0xf72002fcef1c2018U,
  0xebcbdff60e020b14U, 0xd9e20107d9f9e7e2U, 0xc14d3da133833e8U, 0xd5c1d127e00edb01U,
  0xf2040a35e30c1ad5U, 0xebdd0ff102f9ca0dU, 0xfe28bcf1e223f20fU, 0xdeff5e4220d8104U,
  0x32061f51bae72ac8U, 0xffd415004d4dfa0aU, 0x815f8223cc9e709U, 0xc3d629ab3320b5fbU,
  0xe1aa0d07cfd405e8U, 0xdcffc60af3010c13U, 0xf10e6cce71d02efU, 0x1ff9d52bb3021014U,
  0xd90ee5fdf91cf50dU, 0x1c43ef15f62a1e1aU, 0x201c0cd9f113d50fU, 0x1df7fdf20efd2012U,
  0xa601bee2305f0efU, 0x2ed50df62f611c36U, 0x1103f8121ac7df0cU, 0xc9e32cc042fbf817U,
  0xe39ff928c0f6ecf4U, 0xfe3bf2fbf9bb340aU, 0x5f5ca0200fe13e1U, 0xbb29e628ba081021U,
  0xeccbd2d02924e807U, 0x10165e1ae5431dfeU, 0xfef20f312ff41509U, 0xfe1404fcf6010018U,
  0x3be807151bdc00U, 0x21d722d70f630233U, 0xf6edec3035c10217U, 0xc1002cb95bfe1607U,
  0x271c0afcc817cce2U, 0x11fecd15deec1eedU, 0xe6f6cee81fd108d9U, 0xc63de50de4deea07U,
  0xe7eff7ea19f2050fU, 0xfdfc070bd219260bU, 0xd81bc4ef01f904edU, 0x1039faf4ce17e5fcU,
  0xef181ca2fffb08f4U, 0x171524fe14e10f2eU, 0x14d8dd20c7dbd724U, 0xd654ddf70817ed24U,
  0xd4e9eff22ff0f71fU, 0xf5f3f6094131ef00U, 0xc3ffe1f912f612d5U, 0xe6ec2af80dee060cU,
  0x130600fb05f70901U, 0xc400f2dfce2de709U, 0x108cddb013f2df9U, 0xd13323311fde5c8U,
  0xd0a109deb0936eeU, 0x11f2e4ee19231bf0U, 0x10e0b516eeeec927U, 0x67ffdfde40cc906U,
  0xd70d1234fa12d013U, 0xa12ffc6253ae814U, 0xd60617110ff9e7e8U, 0xcee4edf8f0fe2011U,
  0x186e94914dc02f4U, 0xee0af1f6cb2ef4feU, 0xf7101505251e10dbU, 0x8120918bb002ad5U,
  0x78ff8a8001f04f1U, 0x30f01320151331f6U, 0xfaf81d09f3eadd24U, 0x2040ef6d61c1f0bU,
  0x1e0d030a2a27d90fU, 0xf80a0e000402f905U, 0xfa280b02edf8f10dU, 0xf7f700fbf60207ecU,
  0xfef5f8090ee62bedU, 0xedeefe1b070bed0cU, 0xfc1435fffbf4f706U, 0xeef7080431fd0df5U,
  0xee11fdc10104eeecU, 0x1817f6f9f4f812fbU, 0x18f80e07eaf601f2U, 0xd060219060dfc0dU,
  0xf2f703f70a120107U, 0xc12091afd0502fcU, 0x1b0b000ef7e905U, 0x11000cf30ff20c01U,
  0xdef711fd0e0313f9U, 0xdbd534fa1d0b18fdU, 0xfba9fe42f481f2fbU, 0xfd8eeccd09ea111eU,
  0xf1c608e0e20fec1cU, 0xe4f9fcf2fc083ff6U, 0xfae0c8280ae20000U, 0xe7de02020dfaf511U,
  0xf9f9020deb10f518U, 0xf2f900f4f812fdeeU, 0x11d040008fc0804U, 0xf50305f809ece9ffU,
  0xf0ff0819f6fb140bU, 0xfb1710fa121c08fcU, 0xf80808350bf8f0f6U, 0x2309fedef5fe0815U,
  0xf9de05f41cff09ffU, 0xfd040105050b18f5U, 0xe14fc0814edf304U, 0x90c08fd20f60218U,
  0x6dde85b05ed0e04U, 0xc94afaf5cbb30804U, 0xedcf3a48d1f90f35U, 0xf94b04cdc10001c9U,
  0xbfcbc6ba30350e0dU, 0x2edd7641cbfb073aU, 0xc3547f1c43d4e815U, 0x4fcd10b2461d371eU,
  0x332011dcfc2b05f5U, 0x2bab01eaf90fc8eeU, 0x3c18a5d917fdf3abU, 0xcc302272cf78cedU,
  0x4633ed26b4d11f04U, 0xf7f3bf12fe5cdc17U, 0x31001128d3042034U, 0x625090b0710e2c6U,
  0xfaf2d7d600ef23e3U, 0x5017fa680edd1923U, 0xc95950ef1003bd0cU, 0x2b440feccafe3b14U,
  0x194f32af2016bbe1U, 0x5906fdb6170cf4d7U, 0x1f15e1ca0cdcc7bdU, 0xf84dfb2549ef103cU,
  0x2ced053e0dd7e417U, 0x1a0d1231161da91bU, 0x7af1512e4111c2fU, 0xf2f502f0ecea0ae3U,
  0xe6b2034113f8dfd8U, 0xf2f8100ae4e4f0fdU, 0xd3de4435f4fd2f19U, 0xee010411f1efef05U,
  0xc1041bd10933c30bU, 0xc17d8f113e927c8U, 0x15dfa1e3ddf220cfU, 0x193808380fd4ee20U,
  0x120206fe0904c30aU, 0xfc0800040e040d00U, 0xf914fde1160703efU, 0x16f90b1817020512U,
  0x209011702f6fef4U, 0x16f00502f81102d8U, 0xf1df9ea210301fdU, 0x2cfc0a0016fb08fcU,
  0x15070b15f8f80207U, 0x7fef808f922f2f2U, 0x80d090706fd0610U, 0x1cfc0eff07ffebf0U,
  0x2d0fffd004f8fcf5U, 0x15ffd00af900ea0aU, 0xcfc1f19df07f4f2U, 0xc7df0708f5110ad0U,
  0xcaf4b981f9e6f1edU, 0x170a362fe4dfda68U, 0xf706491ff4ee03ffU, 0xb7feebb7d10a1307U,
  0x50610a8071defb0U, 0xfdf4041ef90bf403U, 0xf6f5f4f71009fa10U, 0xf30bf00818fffb00U,
  0x9e6fe24fd04fafcU, 0xf70e051716f9f318U, 0xfcd716ffef1207f4U, 0xe5180807fa130809U,
  0xe9fe06140c12f9eaU, 0xfafced0cfc06e933U, 0xf903fd13fc120003U, 0xcfa080011fdeff9U,
  0x302fe1df921f504U, 0xfef8f60908fff6f6U, 0x8091000f8090a12U, 0x20f5ff12f7fff8e2U,
  0xf971eab1030301f2U, 0xe7b65318100bbbfbU, 0xf313f6ea3428d82cU, 0xcbc20aba56e3e9e7U,
  0xe221133ad6c01fe2U, 0xd8060e14fcf9bcfdU, 0xfbe281431ed5e210U, 0xedd6f1de16f0e500U,
  0xb7f5251cead216fbU, 0x3d15e5faf9ec06ebU, 0xf407df1ce801eb0dU, 0x352e0f06cfe8f728U,
  0xdf101bdc1fedfc26U, 0xeee5e1f4fa2def0dU, 0xc30d6100606d114U, 0x11c09f5f80a1c2fU,
  0xf20823dcfbef031cU, 0xd8c6ddecefee3ae0U, 0xfc1b96db1dfa03f5U, 0xdb0c2445feff38U,
  0x30d71dc0c7e21f0eU, 0x520adfd544df1cf0U, 0x23f4f0fbefe7c4f1U, 0xf5e1041204fd171fU,
  0xe500fffbfe09b53bU, 0x612d0092017341dU, 0xe60a09f4b106e6ffU, 0x312615fff9110b17U,
  0x1ee1f9b803ed16ecU, 0x3604f7cad23b0a00U, 0x50224cefe450cd3U, 0x4de00d4dd70bf3dfU,
  0xd1889db50ded0700U, 0x6d2936284ff3b440U, 0x15c0583cd8ccd8e3U, 0xf91a25d088202a82U,
  0xf4daeb3cef36c1daU, 0xf920fc0109cd0403U, 0xf4093012f5f919e8U, 0x190ef40dc81324feU,
  0xfedf061e151906ebU, 0xf7f4cbee13f20df4U, 0xe00405f9eef811f4U, 0xa22fe1df3f7efffU,
  0xfcbff217041000f5U, 0xf7f2dc04e70725feU, 0x21202dcf2021c09U, 0xf30af72ee40619fcU,
  0xe7f5ef05ff10fcffU, 0xf9080d26fbfdfb31U, 0xeffe24190ae407e9U, 0x2f40ef122110210U,
  0xb381f0f0c1bf3edU, 0xdc0ff7e9141edbf0U, 0x1dd6ed1406e7ff06U, 0xfdfb12fa1206edfbU,
  0x15d60e02fefe230bU, 0xc01def260ded04fbU, 0xf7f009f5ebfc0c0bU, 0xf7a9fff8d4fce800U,
  0xf90e12f0210e0202U, 0x2bfdf620f9f500f5U, 0x10121a19fcdedcf4U, 0xe217100a1b051907U,
  0x71ef8cb0cf0f5f8U, 0x21d4260b0d14f41eU, 0x181210f80bf6d907U, 0xf1c500c924f51818U,
  0x14330814dad71dd3U, 0xe0d423371b48af0fU, 0xcedf002200a1f1fU, 0xcb8108b531ecf8e5U,
  0x9ed182bbae719deU, 0x80ee001110b11ebU, 0x4ef102c08d7fef6U, 0xf508182901fd1cf3U,
  0xf0fcf4581c1cea13U, 0x1eeeed2c1ce0ca17U, 0xe081928b7defcfdU, 0x81a04f0da0040f8U,
  0xde14f94f130fe3f6U, 0x251d0725fce305faU, 0x12072e34f3c10b05U, 0xed67191f060c34f9U,
  0x100c03e3220ce105U, 0xec112df72a2014e2U, 0xeed7f93e37dffff5U, 0xd0d805d83ff70904U,
  0x121f2235062bd51cU, 0xef1e002643f2eaf3U, 0xe781023af3ed2f06U, 0xf8fb18c4f7fcf5d8U,
  0xeef919fe23180307U, 0x140bfe0ffd14f8f7U, 0xd90e1bfe01fd080eU, 0xe3303001aff1009U,
  0xdf00c1c10f0de90cU, 0x44f33714cbda1b20U, 0x1d4102f123cbedf5U, 0xee111a003be526ffU,
  0xce2fbedf310e422U, 0xe4b909ece529e40bU, 0xf7dfd21219eb47efU, 0xe1cd100d21e5dae0U,
  0x1d16f707c3f01014U, 0xfe03ddf6fefc2ef4U, 0x15de0ceef115280aU, 0xdc190e3aeef8e3f5U,
  0xe5dde0ee03eae0f8U, 0x1b1b25eed41c2fd6U, 0xdccc092f0afc1cdcU, 0x2e2162207f82512U,
  0xf015cf812434d217U, 0xc8f3ed051645f90cU, 0x12c83c34ff0e1118U, 0xe0c9e7000119d7eaU,
  0x3f09ee2fed210dd2U, 0xd1df1b1a0557f01aU, 0xe10e11227230a1dU, 0xc48c0eea0719b19aU,
  0xead30213e8120eb9U, 0x132ef719fdda1dffU, 0xd8f00802f2f1f7f1U, 0xd41ffcebf3e33143U,
  0xe14fccc23412d513U, 0xf2ce1713f102e93eU, 0x2a0daee711180221U, 0xeeff040d4313d62dU,
  0x233dfef4bce52abdU, 0xebbe05081f47b52eU, 0x242589c92117fb11U, 0xdaaff0f1f14bfcaU,
  0xefde3809cecb1ddaU, 0x40aed0203ed12cdU, 0xd507072dfae6f3e5U, 0xc7470ee0f8e20c2fU,
  0xed15091f20f2eb22U, 0x2515e102e6d112e8U, 0xfc2225f7cc03f702U, 0x2727ff02cc080222U,
  0xfce00f0814f8f4fdU, 0x110eee23fe1b14feU, 0xf1d0ae1e00108f0U, 0xfc110715f41aed0fU,
  0x2e7bd4300b0addf9U, 0x23e6ef2418fdfce8U, 0xdec1a0b13060908U, 0x320e1d1f13ecbaa7U,
  0x1df0b43defd60eddU, 0x4ec9fd76f940cf42U, 0x639ffd8011eee00U, 0xeb480cec1003f2caU,
  0xf513078cf39f0ea8U, 0x1cd827321144cdf5U, 0xef2913fd1102dc13U, 0xd9e516b930faf1f2U,
  0xc10f330ffec20e7U, 0xf301f9103d070705U, 0xfd1dced0201f307U, 0x2ddb21351a010f15U,
  0x15100c49fe00e401U, 0xe11ed8f8e0bce737U, 0xfd1503dfef1a1307U, 0xfd1b232810021b11U,
  0xa1df6b10e01f004U, 0x151b1827faf0fd13U, 0xf2314efe9f7d208U, 0xf93715e424f5290cU,
  0x111f153dfd01e20cU, 0xe103d8ed3206cce2U, 0xdc9eb2c091900fbU, 0x2d23032c0b2f04ceU,
  0xe2ba217ff707fef0U, 0x2622b7e10b88f7d5U, 0xd50c3920ef0decf4U, 0x730fc22881c1df7U,
  0xa2c2f1e52605ed15U, 0x20243844f1bd0128U, 0xf415680c0804eee5U, 0x102b07b503fe252aU,
  0x2e10f0f8062cfbecU, 0xfe7d7122d20d0f7U, 0x2210efc7c423fa19U, 0x12240d251f20e7e3U,
  0xbc01a10fead813eeU, 0xee31f609f900d008U, 0xe4dc301ff32a2113U, 0xdd2903ecb01936ecU,
  0xff07d7e13200ebd6U, 0xeef52112ef1f2a20U, 0xf6a0395015d228e1U, 0xffd817004100fa1fU,
  0xf1bddc25e835d508U, 0xee23cdebe6e9d5feU, 0xca0717f3bf200f02U, 0x180bef0d81101edfU,
  0xe7eed4071f000ef6U, 0xe1f51b38ea180548U, 0xe2e917302e1b230fU, 0x70a02d91b00020bU,
  0xfe2a22bf0435f6f5U, 0x2ee8d6141616f7f1U, 0x2515e4e102f6f7ecU, 0x212504142fe4e1f3U,
  0xfbf5f7daf3e8d726U, 0xdeec130de0ef321bU, 0xf703001231fb1bfeU, 0x5d8f302fe081003U,
  0xec1f2b0ded190602U, 0xfdfafe1af2260909U, 0x119001527efed03U, 0xded20dfd09e9e901U,
  0xf70539dde6fff30eU, 0xf20e24d605e708cbU, 0x2816e2fef8e403e7U, 0xf5f6dfeee4dfee17U,
  0x6240dedfb04U, 0xbde0000017aU, 0xfffffccc000003aaU, 0xfffffdf5000005d4U,
  0xffffff7a000004a8U, 0x8560000068dU, 0xfffffaab00000952U, 0xfffffa8d000003eaU,
  0x3e500000835U, 0x61700000814U, 0xffffffa400001046U, 0x108fffff0c3U,
  0x5cd000004b9U, 0xf7900000131U, 0x926000000f0U, 0x81a000003a3U,
  0x2e0000026eU, 0xffffed090000062eU, 0x6e200000282U, 0xffffef2cffffe11eU,
  0x93900000533U, 0x81f0000050eU, 0x12b40000054dU, 0xc8afffffe5dU,
  0xa11d21efffffc98U, 0x14030fca100df212U, 0xcd19fd03de3d02daU, 0x51003dc0ae30affU,
  0xfe0df1fad320e6e1U, 0x6e8f21101fcecf0U, 0xc6fbe7021ceeffecU, 0x2040af813170b14U,
  0x91fefdae9170af9U, 0xe1a0ffafbde0b33U, 0xd900f2efe402ec0cU, 0xfef8cecb1613fae1U,
  0x6f0f7fbdef3b80fU, 0xdd51902b103eef2U, 0x9fcedf214d803fdU, 0x3f5f8f1fcf5ef0cU,
  0x180a02fff3ec00ffU, 0x1ed21e18121af6f9U, 0xfc040df51b101f15U, 0xef5fffaf4b1ff0bU,
  0xea042c0aebe2f2edU, 0x3f3fbf8f2f2fc15U, 0x1206ed09e5f3f8daU, 0xeef8080a0803ed0eU,
  0xa60a0be81bf0f2fdU, 0x20f1e400e8010c0dU, 0xf70905f6eafd0e10U, 0xfafdfc0e11e1fdfeU,
  0xd2fa06c4e1fc05c9U, 0xf902a7dd0efce502U, 0xf9ed08f881f1f102U, 0x1f0dfbf8d5f3f6f0U,
  0xee31ae806060905U, 0xf1f2fd0e0aebd310U, 0x3e3ece805060e1eU, 0xecf515ec040ef301U,
  0x200406e4f50ceff1U, 0xfb09effbf2edf600U, 0xddc8f207e5ffe90fU, 0xed1313f8db18f2efU,
  0x11f70706f7f913U, 0xde0218f808ff1311U, 0xce15eaedf2faeb0eU, 0xa010e17ff0011fdU,
  0xf201f0f5f3f9e801U, 0x1404da04020509eaU, 0xfc1d0bfff70110ecU, 0xfe10d9a106fef9fcU,
  0xfff917f5bf00e3ffU, 0x2fd1e0d1efc11f7U, 0x20519fd15f10000U, 0x2dacfbf7060301f3U,
  0xe5fafceb00fdf7dcU, 0xebf80d0003fd0405U, 0xfdf6e312010df908U, 0xeefbf613052ef5f9U,
  0x3060de8cb16f0f4U, 0x1dc01fa16f20134U, 0x45b9f904f1d7d51bU, 0x2202b2afc1ac1f2U,
  0xe8ed11e2f6f50113U, 0x14e3072fe381d921U, 0xf4d63f07ef0d0708U, 0x1d032be1c1eae1fdU,
  0x1b37e903afd91cc3U, 0x2100152bf5f8e810U, 0xf12619b30ad0f4b3U, 0xf925f41cd3020a13U,
  0xfbe70e25cbe209f4U, 0xafd18fbffd2e417U, 0xcf120fe7f412fff2U, 0x100dc70f0bec010bU,
  0xfdf707fdb2fce307U, 0x80ce7100af30418U, 0x60e1fccf70e00f7U, 0xe5b90213101412dbU,
  0xe4eae70b0401f7faU, 0x70805f9faed2900U, 0xe4f3fce5d9f7fb14U, 0x3feec09f902e8efU,
  0xf3f60c01ff23f6f4U, 0xe808020bf3ffd612U, 0x3f103fdd1cb04ddU, 0xffee010ce208ee0eU,
  0xf004e4faf919ebccU, 0x40018ff08d910fdU, 0xd2100b16dff9eef8U, 0xf3feebc90a15fbeaU,
  0xe82100f9f5f9fc04U, 0xf06d0ea00f9e0e9U, 0xfc01de0ceb00d605U, 0x5fee2ffff030f16U,
  0xffef4bf040bfc03U, 0xdcd8f30b0febfcf3U, 0x120d0401e01504feU, 0xfdfcdecc0710192cU,
  0xe7fe2ceadcebee18U, 0xf9f2fff7ecfbedc7U, 0xfa0403d707fe07f0U, 0xe1ecf60d09f6020dU,
  0xf1ea1006f912fee2U, 0xf4030debef15f2ecU, 0x30712140e15060aU, 0x1ad319f5f607b8baU,
  0xee732100b25cffcU, 0x160d03d209070ff3U, 0xecf706fa08e7fd10U, 0xfcf8fff1fae2faaaU,
  0x911e5e92ff706faU, 0xcae20008f4011515U, 0xf9e21e2ae71b16f6U, 0x31f008e1fdcae4f1U,
  0xfef2dbce0716dbd4U, 0x8e6d0ed23eaf506U, 0xefff2bf3feaeb0bU, 0xf2e6ee070813fffeU,
  0x5f61a11f7eb10f8U, 0xf9810b0507ebe206U, 0x1a8f5f7e00d0de3U, 0xec021ffdef090bf9U,
  0xfbf1fb18cd17d415U, 0xff010ef8fe0f1129U, 0x50ff501e6eef206U, 0xed04efe705020118U,
  0x1811e1001c00edfdU, 0xedee11130d0200e7U, 0xf70603e9f910eb06U, 0x5e10102d8fefb0cU,
  0xf909efec0e02f6U, 0xfc07edcff0ebf023U, 0xe0c07e10d15d6bbU, 0xfbf6e3fb190412f2U,
  0xdf2fef6c3dd01ffU, 0x11ea040e070310feU, 0x200d06f50303e9faU, 0x2ece0e9f6160ce9U,
  0x50afbfe05f3dffeU, 0xeef1f3fd000608f3U, 0xfaec09f703e0ec14U, 0xf10ff0f604fa0dfdU,
  0x15fa08fdfed7eafaU, 0x517e5eef9090eecU, 0xfe01051703ff0f16U, 0xe7ee150113e708f5U,
  0x30c17d3f3d0f304U, 0x6fe12f306f2c5e0U, 0xddc021ff13f7e8faU, 0xf6fefdc9bf04ce0eU,
  0x2ea1e1ef3112010U, 0xe50d1503ad01fa09U, 0xf015f1d6da10feb5U, 0x70d050f030df6d8U,
  0xe6110e16eadde7e6U, 0xef080906bf07d707U, 0xe2fefef804070e10U, 0x170ff9b307ed28U,
  0xeb0402cb000bf5dfU, 0xfa0d060afe04e4f4U, 0xf00f0409faecf3fcU, 0xfe161ffaf505dafcU,
  0x80314e6fdfbf8e8U, 0x315f605b4051022U, 0x1eb5db15fbffe6efU, 0x2711e9ebf91ceed8U,
  0xfaf11d9308d7f508U, 0xf3129f050c14e0efU, 0x15f309f50f150326U, 0xf0c30110252b0681U,
  0x19caf623fd150f03U, 0xebe5f8f414fdc8f2U, 0x704ffe01f27fdfdU, 0x40bd31808fe12deU,
  0x9e11513ff011710U, 0x9d8f3f50cfb24feU, 0xf0e6fa09002cf40bU, 0xf6fef907f3f2fcf7U,
  0xed0805e80b36ebfaU, 0xd7fc180f060cf814U, 0xe4eef313c1f9faf6U, 0x2bee1ff0f1d427eaU,
  0x21e5ef0718280819U, 0x2c130e1a1515c9ccU, 0xe00c18e406f4e60fU, 0xfe25b5a3f3110fb4U,
  0xd2f4abf3e403f410U, 0x13e4f7e50803eed6U, 0xacf9a0d00a9da03U, 0xf608e1d604f7f9e2U,
  0xd9f6f907fd11f62eU, 0xfcf5e6df0b18f1d5U, 0x28eeb90714f61803U, 0xf2e6e6ddfaf5fdbbU,
  0xe4f4ee00fae9f40bU, 0xfaf5d914e41a11e2U, 0xecfdefdf06e8fde1U, 0x231d0fddfafe1300U,
  0x1018e1f4e711d70cU, 0xe1fbf406150903d6U, 0x12f7bb2adc001501U, 0x40a0736182a3638U,
  0x18174013d5e3f923U, 0xed0d2e2fe5240f00U, 0x221bf080b1401fcU, 0xfced002a24ec3513U,
  0xb0ab913f615e81bU, 0xef5eafbfeca2805U, 0xf0c0ffff4f6fa02U, 0xb0120eec151203e5U,
  0x1b1debee06ec10f0U, 0xe913ff1d0c0df1f0U, 0x1c20fc0ef8dbfd14U, 0x1b1efa0fd2f719f9U,
  0x15060cbc003002e8U, 0x30beafd0ce30714U, 0x2515f6ddfefbfa05U, 0x1f02d4ee30ffefe7U,
  0x881a10de4d60b18U, 0xf507ebf90d0df9deU, 0xe510e4e01bbcadf5U, 0xb4fed7df052aea1eU,
  0xc4f202cb20fdf43dU, 0x7d3efd5fee6defbU, 0xd5f0f9e5ebefbc07U, 0xf607eae90bfbffb4U,
  0xf3eee3f107f500eeU, 0xeec906120704e7f9U, 0xf1e1f7ed0501faf5U, 0xf50a0ebbfe142f06U,
  0xeaf7eedc0ff918feU, 0x1622eae6e3fbfdc4U, 0x9efe4e617e706f3U, 0xeaf807f801ebccfeU,
  0xf9f508ecf60504e4U, 0x28f213c8f5f7f10eU, 0x822d510ec120904U, 0xe31912091a0d1003U,
  0xeb1aebef05d3d30eU, 0xa05edfbec04001cU, 0xf51c0fbea109fb3dU, 0x501c4f107f817eeU,
  0xf309e7002adbd901U, 0xf508fcfe19ef0edcU, 0xfe08eaccff16010dU, 0xf6060d250ffa09fcU,
  0xe304e1ea11f706d8U, 0xe1f501fe071a17f2U, 0x20005fe2ffcec0cU, 0xbf705f7edfef3f6U,
  0xcf909fbfb08f8f8U, 0x5fd100404e2ef01U, 0x130dfc031ceefcfaU, 0xf8e50cfb00fbfe13U,
  0xee09fe05151df102U, 0xd6ede80bea18041bU, 0x1208f308f7f902edU, 0xfaeaf9f0f5faf2fbU,
  0xaf503cea21301f9U, 0xef0be0c2f8d6d709U, 0x6fd0ce1f7f9faffU, 0xfe09eaff04f100f5U,
  0x90006d9f9fe1d0bU, 0xf106000cfefaddfeU, 0xf2ee0e010202fff7U, 0xfb0b00d9fa14d804U,
  0xf405fd0afb020af9U, 0x6f40aef1909dfU, 0xfe0924f5fc1af80dU, 0xf80d0609fef0c103U,
  0xec04f9f6f610f400U, 0xeaf812fdf8f7ee03U, 0x221511f8010e0607U, 0xe7bd0ae6cdfccf1cU,
  0xde739f70a1a100dU, 0x110dafd0de99f609U, 0x2230140a10d329e5U, 0xf7bcff1d18009626U,
  0xf90f16e002ac1003U, 0x13eee3ebd712fae4U, 0xba1ce0142beb1afeU, 0x26de1803bef9f5c2U,
  0xfbf9f0fb14db01U, 0xfbe7c0dedef7f630U, 0xf7fbfefde6f5f807U, 0x1c25e595ed319803U,
  0xbb26f2cef819dae4U, 0xaa1c1af1bb13d5e7U, 0x310fcdccef9b810U, 0xdb02120de6efff35U,
  0xd9e800d5f7080bedU, 0xde82113debdcee9U, 0xf90a1c00e600f703U, 0x70c0afde2dc9f16U,
  0xfed914ed14ff39d4U, 0xf1ff1fbc70c04e1U, 0x8107fee50a0013b7U, 0x919fb13d5051003U,
  0x14e0223213b7bf0aU, 0xf2f807fa060bfe0aU, 0xdcdf040bd713fe17U, 0x17ffed02f808f8U,
  0xed09eff223f3e5e4U, 0xf319dc010e162c14U, 0xfe3f9d4fef1e7eaU, 0x205f0f606fcfd1fU,
  0x1df1ed160cdde3d4U, 0xafba140cfcf7070fU, 0xfbec170d091fdff4U, 0x1f16fef3e4caffcbU,
  0x312e9d805f0f3f6U, 0xcecbeff707e0c900U, 0xf3c42cee08f42803U, 0xfe3b13fb081f2301U,
  0xd40b1618c21bfef9U, 0x604f9dd0112c3b5U, 0x12d80e000009d4f6U, 0xacb0e030708e91bU,
  0xd7e90efaf60b121cU, 0x92c19051a06faeaU, 0xfa10ec02f7fc07d3U, 0xdbf7030b0a05fe0dU,
  0xee2131cee0cfbecU, 0x1df901e406f4d9f4U, 0x32eba1aedc8fbfbU, 0xff20c19f200ed11U,
  0xe4210f26f604eff5U, 0x1f33f90412eafaf4U, 0xed1001dff9e5dc11U, 0x920020dfffe1217U,
  0x231509e91bf809f6U, 0xd129f0f20404cfdeU, 0x3191319dfe5141cU, 0xf218ee0305f802f3U,
  0xfe0027dde2d6edf5U, 0xf6ecf5ff02f5031bU, 0x17eefdf913fbeb13U, 0x91de9fbf00b0700U,
  0xf611f9f5d6031ff7U, 0xcc05e91cd5bd120cU, 0xf5ce14f40bf21113U, 0x20c0b4000e8d1f4U,
  0xa1be4eee7deacf6U, 0x521101c1415f616U, 0xc6ff1b32e113f3f3U, 0x1912f2e408f31302U,
  0xec0bfdf60bfef7f7U, 0xe71e0405070bfa21U, 0xfb0df4f3080cf4fdU, 0x60e0ff00df2bbf0U,
  0xf30811211711f202U, 0x91102effbf9e6e4U, 0x3fa1dc7dff306f8U, 0x14b8f2060e1aee2cU,
  0xedcbe6f4ed050efdU, 0xdd0f04f80100ec0eU, 0xf9f81bfdf8170cfdU, 0xeada15e001b7060fU,
  0x4e201021abd19faU, 0x16f908242509ed06U, 0xfe11b9fdf8a4c818U, 0x5f802f9111a091aU,
  0xe3dcfeeffc00180aU, 0x44fb0d24f002cae7U, 0x1efb390f2021f70bU, 0xb818ce05ffef0d04U,
  0x24ef1805b4f901ecU, 0x1b0efeb1ef04eebaU, 0x20c8abb1ecdcca08U, 0x2d1e2c1b2b1a8efeU,
  0x6e21e1df022d2f2U, 0xad5bc08ff0d08a0U, 0xb804dafcab9f24edU, 0x6d20d2300ef0d9eU,
  0x1ef7910b17cbe514U, 0xc2fa3b1f0bcd18f4U, 0xf8a1f9f70ea6ccf1U, 0xf83e08c0f5e6e981U,
  0xd912bc13f402f12bU, 0x138b180207afe6c7U, 0xfef2fdee0babf509U, 0xf1fae914e9fcf1f5U,
  0xd0e26d00c2325ffU, 0xf7f8f81b10f00ffcU, 0x16ff0003f6e312f6U, 0xf2e6fc29f90dfc12U,
  0xe7f410f8d60b1907U, 0x2b1d6dc81f9dbe4U, 0xfd07ea1603e9fdf5U, 0xed0ce2e2eafde9bcU,
  0xed09f8f10b08f20cU, 0xce2040febcf1122U, 0xe70000e5e411fff1U, 0x4010dac3d81ff1a0U,
  0xe8f0c9151efee90aU, 0xd71beef0de27fff8U, 0xf6d91918ee10f724U, 0xf26f1e5ca000d23U,
  0xe2f60304040e16dbU, 0xdb23030310fa0e0aU, 0xf10a08dbfdd0e3f1U, 0x20611051a112008U,
  0x7f5131b10f90af4U, 0xe41e12f7160506eeU, 0xf905fb0904f3f102U, 0xedcfe3a7d9d3f5fdU,
  0xf4ff25f3f6d00ee7U, 0xa080404d2e2e81fU, 0x2b23de1020d3bdeaU, 0xf6eaff17ffdab00fU,
  0xe9ecedf8eac3f3fcU, 0x2a0ed8edb10a01faU, 0xec2d180310f51bdeU, 0xfee0e60302e3f0faU,
  0x29b7fdfa0513d60bU, 0x1201cbe5f9baff0bU, 0xf91a130fe5fd0efaU, 0xf216140dfcde2108U,
  0xfce301f8d9f301U, 0x17be0b161ef60404U, 0xf107e7f20cf332deU, 0xdebd0df8080bedf6U,
  0xf211070d0013d316U, 0xeff8fbe5e609fb11U, 0xf4bf0903f913f3f4U, 0x140d0e08bfe90c1fU,
  0xb25d8e80fe10de6U, 0xe6a6fe14002bd1fcU, 0xecfe0202f11211f4U, 0xe4fc050edd23f61aU,
  0xed0613d9f0f30416U, 0x7ebf10805de0823U, 0xc10eeff01f6f5f1U, 0x1e5cefe19c406f2U,
  0xf0fcc20fa3f40214U, 0x1b2f0adfe9d7f2eeU, 0xfb17c38130eac706U, 0xd926c0e9f0f2f7e5U,
  0xe923dae0e0f9c50eU, 0x508e7030d0d16c0U, 0xcb3414c2eefefa1cU, 0x1ffa1bedf80bd5c8U,
  0xe92b46a926f3c8cdU, 0xd9070c0b0708f109U, 0xf1e0010a07f81bbeU, 0xeb504d9f715f5f0U,
  0xd0d8be0a1c1edd06U, 0x1e03b38d04f7a5d0U, 0x2e0a3bae280b15fcU, 0xc8099dff08221120U,
  0xe4eb1c00f5fabc06U, 0xecd80ed5f8d5cad4U, 0xce12f207f4e819ffU, 0x180fde1dfef1fc0cU,
  0xf914fe160611e918U, 0x3fff31a1706170bU, 0x17e7e6e6e3f60a01U, 0x13f1f50f0ff50c35U,
  0xf8c91ad505341af7U, 0x10f6f11805ea88fdU, 0x8faf900ec07ecd0U, 0x30a06060cf4cdd4U,
  0x97e193e9f9bc29e1U, 0xf7d409c51be8e2b1U, 0x7f9ff2be7e907f9U, 0xf420cbb6f31efaddU,
  0x507baed0f16f7eeU, 0xd41ec801f2151abfU, 0xfd08e0030814de39U, 0xf3def3fdcde50e01U,
  0xfd10f609ddf810fcU, 0xd9df1dfa07fd030aU, 0x6ff25f2ff280fe2U, 0x6effde4f005ee11U,
  0xdb15e2f4fbdce602U, 0x10f417f61c0ee10aU, 0xcf2ef06df1be40bU, 0xe3ca211d22fd3014U,
  0x8b1263dfeeefd04U, 0x1dee22cbce1dc3c2U, 0xce2ef5e816db4002U, 0x10aea013412cedaU,
  0x19140b0f05cb0e26U, 0xd7d8f1ff0e351dffU, 0xb5f8d609040f0554U, 0x2f06200be11ff3a3U,
  0xfad609041f0639ffU, 0xb004bef6efe32639U, 0x4070706081a17f1U, 0x1cbf409ed03070bU,
  0xf7dcfcf30903e5f5U, 0x5f4f70d0501f707U, 0xfb23e70a1100e0e9U, 0x70d0af81825ff1dU,
  0xfa0ff4edf409f106U, 0x50ffee2ebfc200fU, 0xb6fb04fffa0e13f4U, 0x1a160705120cfaf2U,
  0xf90bf2061317e6cfU, 0xf04080216d0e7fcU, 0xd802f3fe0ebfff13U, 0xee1af6f814f11d28U,
  0x1cfbf6f409d718e5U, 0xfc1f031318f6ef0cU, 0xbb1cf5ed0203e201U, 0xdd00e30b030ed2d4U,
  0xfc0305000301e40eU, 0xfde8dce4ea212319U, 0xe9c90e1bd9040bfdU, 0x10a0808e6d51212U,
  0xfa14e919eadaca20U, 0xf604180c040efcf0U, 0xeeecf40d151e10e0U, 0x142500f814ce181bU,
  0x8ee00c15f608f311U, 0x10c0cf4befe1407U, 0x71808fcf10a09afU, 0x2e9000ed9ddf715U,
  0xc800f8ec0dd82915U, 0xe00f27141bf4041bU, 0xfc04f80ed3d808faU, 0x93005fe160deff7U,
  0x80becfdf209109aU, 0xcc14dceddc040311U, 0xfeb1ac1e004af11U, 0x1ae70400da09afa6U,
  0xb4239f1ccf2f4f3U, 0xf4faf30bfcd3df03U, 0x14c00ee315e315feU, 0xef261a14e416d6d5U,
  0xfc071686d2fbe9d1U, 0x1a010709f5c2d1a8U, 0x3bd62508cbeadcf3U, 0xe11804d3d5fbd4e4U,
  0xffc904de22061316U, 0xfd2703f8b21be10bU, 0xec24f6a281ffe5aaU, 0x117fef3f6e9f4c9U,
  0x2bf821f2dde4dcf8U, 0x16f0ef032101eef9U, 0xdef908d921021627U, 0xff3202b4d41c06eeU,
  0x191b40fff3fe97f5U, 0xae32d515be1001efU, 0xfbce270abc2cf1f2U, 0x606f21408e60620U,
  0x2f20edec15c203baU, 0x1b102d1330150df3U, 0x3a2a1012001ffa13U, 0xf2d512050e1c013fU,
  0xeaf7271cfbf6f004U, 0x48f6b7f8d0e70c1eU, 0xf03224e805e615f6U, 0xe1f6151535c7e50bU,
  0x284b12ee2f90da06U, 0xf8fd17240af93445U, 0xf70b31171c151c27U, 0x23eb12ec0fd0eef6U,
  0xea261dd81cf5e596U, 0xe91cfdfff3f00f09U, 0xffe802be42f7f70cU, 0xf926f5f4d30205f1U,
  0xe0207dce81634faU, 0xe4ff2123130425ebU, 0x21afe80efa00effeU, 0x7db311105f0d9fbU,
  0x5f3f6b9052029f8U, 0xf41fdb0d1ef1f1aaU, 0x6e5ea05050b07daU, 0xde2ec7eecaebd8f3U,
  0x13bd28f017e327f0U, 0x6ede506bafaf325U, 0x405e6d904ea08b0U, 0xfc0b0ef80ff5ff9bU,
  0x317ea000ff5c1e8U, 0x812c9e0d10a19adU, 0x2de2017f5fd2102U, 0x1c2c0600b01430f3U,
  0xd0c5f2101e10e2cfU, 0x18fdfc2706c190baU, 0x170c03810915d7f9U, 0xce34fdfaf51813f9U,
  0x20ebf5fdee1bf709U, 0x9e500f609b6f214U, 0xf8d5d510c0c1ba1dU, 0xf80ae52509f7ca9fU,
  0x10609cefdf2d5faU, 0xc90806d4e903fffcU, 0xe9adfcf4fa0aecf8U, 0x3a4e2e604adc717U,
  0xfa92c1cdd803f717U, 0x300ccafaee079294U, 0xfb07eed9f201f11dU, 0xd833caf9f717f6c5U,
  0xfff00efeeb1ef4ebU, 0x2cee01daf79594edU, 0xfafafbf209e80de2U, 0x20c09ff14f8f9fbU,
  0x11100015fbfc020cU, 0x181209f41700fbcaU, 0xbe0f02e1fa0c08f9U, 0xbfbf2ca0bed0101U,
  0xf6daecf40202e80bU, 0xfefc1600f105e3d0U, 0x910f91e050900e7U, 0x1cf0def6120fdad2U,
  0xd804ce080cfe0404U, 0x5f602c40b0a41ddU, 0xdfafc6ef02d0c813U, 0x6f7e50c26eb12c8U,
  0x11f11801ee040d10U, 0xfdeebc0402ecff06U, 0x1ae31dffec0d14e1U, 0xffe60adcf21f21fbU,
  0x808f91120fbdc2bU, 0xf7fdf0ecfbee12f9U, 0xffe410010bf2fa05U, 0x142a12f0e10508ffU,
  0xee060a13f60eed00U, 0xd20701f1fc110f1aU, 0x528170c04090d07U, 0x270ee2bcc6e6141eU,
  0xd60e13fbe8f5f3f7U, 0x14ee0206d2f10627U, 0x170c0bf7ebfedbccU, 0xaf4e706f1d6fdU,
  0x8170ef729df14e9U, 0x1221e6e6b0e4f9faU, 0xe21f2718fdfcebeeU, 0xf0fdc6f60b0406f0U,
  0x2cfb81e1c62ac721U, 0xf8f4ccde23d2fa1aU, 0xee0e0a1d0ccc050bU, 0x112f005eff6eb07U,
  0xf8ff13eeed1101f1U, 0xf9f7fdec09f6fb06U, 0x17e3feea040b0c1bU, 0xfc1c0cf0e507f3e8U,
  0xf91715f905f7e6e8U, 0x21cf70b32f9e3fcU, 0x12e4edea0144e5e8U, 0xeeea06fde101120aU,
  0xf9e3f90c04f1051dU, 0xf5f01e15e117e8feU, 0x6ef1a02f216eaa5U, 0xd8d1fcae14db073fU,
  0xc81010effcede3ffU, 0xf16e6f517173cU, 0x1d27d41221d8d8e2U, 0xeefe2b0912fc231fU,
  0x27e91216c20b0305U, 0x8fa01f10203ff12U, 0xde12f101fcdfd0ebU, 0xdc1415fd1027faeaU,
  0xa0904ddf30fe01eU, 0xd5ecff21ede7aee4U, 0xe51ed1f017e0ff06U, 0xc0916f320fe0028U,
  0x508f0030f0409ebU, 0xfcb9ebcf0d0af2efU, 0xe8c3e40624041d05U, 0xe7cbcb121605c7fcU,
  0x30e8fc1e0b0400f9U, 0x1ff223e9d4f18cebU, 0x1ac72321dcf30b0bU, 0xff23e20215d4c5e6U,
  0x81fd7e6e7b30cf6U, 0x2b06f6ed1e0a980dU, 0xeff6ef0202e5091bU, 0x11120f1920f2fe07U,
  0xa4da05060fddbaf2U, 0xfd22fd05d228f91cU, 0x17fa07cefa0509faU, 0xf401d2f4e1e918d6U,
  0xcd030d051402c102U, 0xa7fafc04050cd0eeU, 0xee0f10bbfdf814e6U, 0x11bbf9db0e3c2800U,
  0x4c7fac016f31113U, 0x2fe70febf3fe1908U, 0x2f90e01e80ddc07U, 0x111de2f000d2080bU,
  0xf481211fd211fe11U, 0x10d0d04ded8e9feU, 0x120c040ff88e24ecU, 0x70d091b13f3eaf6U,
  0xdff2ddfd1be71204U, 0x2617090ced0bdaceU, 0xfdfc082ff04b8ee9U, 0x2919fadf2104e3U,
  0xfff113f4c50d06f8U, 0x1e22e9c7f50503d1U, 0x110a04d30c26a9b8U, 0xe4fbf9038c1fe8c9U,
  0xc03fadeda07e707U, 0xf7aff1f1f60bef0aU, 0xc81a07e229fcec16U, 0x110d0eec021509edU,
  0xfe070ac5fe1d11ecU, 0x2c00ec0b0516d2fdU, 0xf1063019e7f2efeeU, 0xf715ed2aecf1e505U,
  0x191605f510c103f6U, 0xe6270efff320d7faU, 0x484d629eb1a0af8U, 0x29fbc1faf31bdbe8U,
  0xf30fdfe406a912b6U, 0xd73abc11080ae203U, 0xba05f6df2216e521U, 0x12d10dd30801f7d5U,
  0xd2d7b0fff9ce151aU, 0x11220ddae70904e2U, 0x505dfcd14d4ecebU, 0xdbca0bd20de8e8f6U,
  0xf38dae05c1db1300U, 0x5d8fc0515e1d00bU, 0x2df1e717260feb06U, 0x2d810394960bd3e3U,
  0x1b18cd38130b11a6U, 0xcb26a7c4fa95f1a3U, 0xe3ea340cfcd11d10U, 0xf9f15c907ef9c3cU,
  0xf211aff14db2c14U, 0xf9f5e8f104fefdf2U, 0xdafa0e0bffe6f6e0U, 0xc1f06d7d2e7ea26U,
  0x6021afa0e1cff21U, 0xf913e70804ebfe0dU, 0xed20e910ffcb16f2U, 0xd1d000339c8fbf7U,
  0xf8faffddc60906f9U, 0xb5d015ecf732e211U, 0xcf9cecbba070617U, 0x710cdc1e70fe9feU,
  0x10040905071fde04U, 0x8c0f5e1cce69b05U, 0x2bd1d2ec60e0b09U, 0x301ece8c8c4e503U,
  0x26071c04e89808f7U, 0xe3b30d11eb01ff1cU, 0xfff91207010120f5U, 0xe5d7f207e5280b0aU,
  0x7d90307e8391fd9U, 0x3a03190fdcfdf429U, 0x8fad7f0d000f2f3U, 0xf40801260ee5e222U,
  0xf71903f9120cecU, 0x71fe2060ddfff1cU, 0x4efe4f0defbef11U, 0xffed1edf2f15dd0cU,
  0x1216dcdcee10fbccU, 0xe22204a00012f2ffU, 0xfd0d09f2faf5ea18U, 0xe2ecde2ec012cd0dU,
  0xeefa1f11ed0af90aU, 0x40005f6e4f7e209U, 0x300eee911fae0feU, 0xefbc030f0414fe29U,
  0xd8e406f3000d14efU, 0x24f3f5fd0109b408U, 0xe8ec1ff50f0cebf8U, 0xdb2511e9d3eb1511U,
  0xff8f70ce90ebf1aU, 0x1020bfbeef11c15U, 0xd8eb05e9fffd0c81U, 0x13fe06e7fab7f602U,
  0xb1070b16141edffaU, 0xc80208f3fa16030dU, 0x312f6f90ee90aceU, 0x4fdf1dff9b509feU,
  0x4fc05eff2f90afbU, 0x11f4fe07e91bf5f6U, 0x1aea0a28080afbf3U, 0xd91ef72503ea02f6U,
  0x12120212f40124efU, 0x150c11f406fcef09U, 0xe00011b0d01fd0aU, 0x1a05b60c08f6de02U,
  0x90908a40bf0f1fcU, 0xbe9e2c9fef70d06U, 0xf7f4010ae70fc733U, 0xfee6fb07f70ff6efU,
  0xf7eb17fde6fbfddcU, 0xf7020afa08b2fb05U, 0xde001501080f0a00U, 0x6f805a5f5ec061eU,
  0xfe06fafe06e6f6e8U, 0xfbf70603f4f805fdU, 0xf600fe0904160319U, 0x4fd0ef1e8e6f5ffU,
  0xe405020c0d0c08f6U, 0xf2fefce70102f50aU, 0xfd04f7eafeed06c2U, 0xafd07f3010cf7fcU,
  0xf312f713f2b0fc13U, 0x10ef805f6ee04U, 0x20ae9b4fcf0f4f9U, 0x1ed2e4e71cf6f5f9U,
  0x1f5f0ec14fd130dU, 0xd01fa060000fbf4U, 0x901fe08f5fcfa03U, 0xf70af903e9cfd707U,
  0x2de20defff00fdffU, 0x27050b1f0211e2f9U, 0xe90be4111fd206f1U, 0xf4101613041ef20fU,
  0x107f5eecd2a06eeU, 0xeef30dfaf5fd0004U, 0xcbedff11faf0f20cU, 0xe050ef7efecfcf1U,
  0xfa0ae9fcf50217bdU, 0x409fb0e08f6ff01U, 0x706ed15bae1f800U, 0xee02f712001af4ecU,
  0xcccbd10f14ccf707U, 0xfc1a0303ed01f9c5U, 0xb214fdf1fd0e021fU, 0xfb080be40df51011U,
  0xeff0fc0f0019f505U, 0x2f918fb0708f6d5U, 0xedde011907f4fd0aU, 0xe7fd030fd20df7d1U,
  0x8d8fafa0009feedU, 0x91218dfca05d71eU, 0xbdfe02ebf50802daU, 0x1911fdf20a0dfee3U,
  0xf0f1e805fbfbf3e6U, 0xec14140df30aeff4U, 0xf2e6faeafa0d11edU, 0xf506040381f80507U,
  0xdcf9feeff1fee99cU, 0xd5eefbfed30d1608U, 0xfef51113e41a10fcU, 0x4f2030911f802e9U,
  0xefbf9fbf1fdf4e8U, 0x100fd1600f80afaU, 0x7eff0ca0210f2ebU, 0xe90402eed20b1417U,
  0x15011006f3f609e9U, 0xdf2e70b01f000f9U, 0xf7e6f5fbf5fefef0U, 0xf1efffe8fbeade04U,
  0xdfa0514dff2f50eU, 0x1908d3f5ddff0ee0U, 0x100310d100f9f2f7U, 0xedf6f6f413fff804U,
  0xffe50e020e04fe12U, 0xff504ea0502e8e2U, 0x11200cfdf7fd10U, 0xe30c05ee09f1fc05U,
  0x4fb1ddff7ff0e06U, 0xfa04fffc14011411U, 0x31300fefdebed08U, 0xfcfc0403020ef108U,
  0xf00a09011c02080eU, 0x20702f716fb0309U, 0x3070aebfcf3f202U, 0x131bfbee0b060408U,
  0x1a1e0ef8fffff6fbU, 0xf8f9f4170cea13f7U, 0xebfa100914eb0e0aU, 0xff130ff8e7160215U,
  0x5fb170102f6f8fbU, 0x1805ecfafff00118U, 0x1bf8fa061600fa08U, 0xfcedf00d1809090eU,
  0x141afc0a00001500U, 0xf7f1e9f6081be302U, 0xa4e6d80705e603e9U, 0xec07fbecfeed0cc5U,
  0x10e14b612fe0cdbU, 0xedd2f21a110ee521U, 0xa411fd0c11f3fb1cU, 0xc01e7132be7e5d6U,
  0xedcf1c1d03d5f407U, 0x16fdf8f0ebf3f014U, 0xc6e808cbf1fbe205U, 0x2101cd59fece411U,
  0xe30e01fc03fff4d4U, 0x3fd1ce10fabb523U, 0x198f6e509ecd906U, 0xff1737e4cb01ea20U,
  0x133bfff60bb5c4dfU, 0x1516040cf5de05eeU, 0x1dfde107e3ee10c5U, 0xe405e91a0e270c0dU,
  0xf8010218f8f70cf2U, 0x622fffff6fb08f1U, 0xe30a03c7d20828f4U, 0x217cefb17fd36f5U,
  0xce15db1a21241502U, 0xdb11e115db090106U, 0x120202070104fa08U, 0xfcc2f1101cf11dfdU,
  0xfff3ebf9f7f9ef1bU, 0x90f3bf195f3e8f0U, 0xe1f7143f1ef7b0f2U, 0x2fd9f6f707c9ba05U,
  0xf9fc10c0e418f8feU, 0x132ddfe3ecf2f40dU, 0x22fa0504fda010e6U, 0xf92e0701f219e4ecU,
  0xbf30801010f0bb1U, 0xf2ffe21cec031ae5U, 0xf80c0623d0fafbebU, 0x11ff0808faeeef81U,
  0xeac709e7e50e1c06U, 0xfd06cc09f0f606f8U, 0xf90eeae5010228fbU, 0x1213d713e5e61bf8U,
  0x70900d5001602d3U, 0xd6b7161c08a9eb04U, 0xabe3080fedf1f015U, 0xfb34050eb70613eeU,
  0xf70f140cfff6e2faU, 0x1a00be030af5e7dbU, 0x13547d8d80818f2U, 0xf2d0da26030ee517U,
  0x1b882cfa06fd07cfU, 0xf92014f2de030420U, 0x1d2115f60a09ffbbU, 0x81f70706dc0b0f0cU,
  0x11fb0ef9e820301bU, 0x25ba14f60eabfc07U, 0x132013bac50903d7U, 0x19e4ece0fc17f5e8U,
  0xf1faf9142fda1205U, 0x939edf1fbfdfcd8U, 0xe2ea0cff030e02f2U, 0xffff03f7f80403ebU,
  0x6f3f7fde80b16fcU, 0x1ff1ffe3fbe0dbf6U, 0xf3ebe9e2010a06f1U, 0x19fdf104ff18ffc3U,
  0x50c0b0deef9U, 0xe5faf316f9ff03e0U, 0xf9f320030c051205U, 0x202a19e2fb04ef0aU,
  0xfc12f2011bfe06f7U, 0x87121dff0dfa1d08U, 0x1212ddee07130806U, 0xecf812eff4a90a0aU,
  0xd6e700d9f7e1d6bdU, 0xeb24fdcf001cf310U, 0xdd0eef24ed012e15U, 0xf02f402f30ced01U,
  0xd7e61ad915f0d505U, 0xa280af0f9f0cf09U, 0xf6fceeeae6fcfbf6U, 0xe221f3d70af7e6feU,
  0xfb08fe1c0f0c0bebU, 0x2d13e3f9e912dfedU, 0x6fb260931dfe11eU, 0xf90e030f0102e4ebU,
  0xf8f6ffff0a02ef18U, 0x170929ecf4caf600U, 0x3fb04ccef00fbffU, 0xbb0f291c11e11138U,
  0x172ff9e8fefa1afdU, 0x2d7f5f703c3fd1cU, 0x1b0ce8d9d9050debU, 0xf906c5f90f21021dU,
  0xbee16f1f3f62e19U, 0x3814f514f9fdf304U, 0xf9fa0b0af9f0fa12U, 0xed0ed90a04faf40eU,
  0x80df3dae310f812U, 0x13fdf0dd08fb1b0aU, 0xffe805030607fbf2U, 0x24f0f8e1fc21dfe3U,
  0xff021a011cfef3e1U, 0xeb010801f8f5ebffU, 0xf0f906d4e5fce414U, 0xf3eb0c07e9dd1c0aU,
  0xd1fef1e6fe0af705U, 0x1615eaf001ded8ecU, 0x9fdfae917f0de15U, 0xcf4f60108ffe910U,
  0xe605f609f2f701f5U, 0xd10f903fe0c0af3U, 0xfdfb16dfe608e4fdU, 0x1d0ad6f2f908e6c6U,
  0x4f1e60615fe0e07U, 0x309f3fd15f6d703U, 0xf31cedfbffff100cU, 0xedc60310fbe9fa04U,
  0x12f6210cfdf5e318U, 0xe9f719e1f908a9e7U, 0x19e3fc13eaeb0affU, 0x2dcf022fdf130f8U,
  0x8de241e38e12003U, 0x3ddf50f19d4d109U, 0xfe02e60c020207f0U, 0x190ef10100f8f5efU,
  0x1e719e40311f711U, 0xeff9fdf30be6f8e1U, 0xd104f5f5fdf7f106U, 0xee0005ee07f6ed07U,
  0xf305f228ed0b0ff2U, 0x13f3f3ff07f5e9f0U, 0xf5f41cef130802f2U, 0x425ea04fbf8e8fbU,
  0xfe0bf4e7f7e704fcU, 0xfdf907f6ea0417fcU, 0x9100111fc03a6f9U, 0xe3fa1114f1a905f6U,
  0x3d2e705fb04ff0dU, 0x13faf60bf60c2d04U, 0x15f9192607ed1cd3U, 0x22ef6f90ef1cbffU,
  0xfdf8fce105f8fef4U, 0x3301fbf7fd0b01dfU, 0xbf5fdf6fcece400U, 0xd9e819f70b0bf606U,
  0xf907effc10e705f3U, 0x613f7e4f3f409f3U, 0x1301faf0d8f9f809U, 0x7f9f4f00410eafdU,
  0xff418fff8f5050bU, 0xc120110fef009ffU, 0xa0dec040febf404U, 0xcf714cf02e60707U,
  0xfe0704f2e601000eU, 0xe5e3021eece61b16U, 0xfff9e704e913db0bU, 0x10e9ff11d8f50e14U,
  0x40920190ade1fffU, 0xf50305f801ef81f2U, 0xe1f2c11230d0b07U, 0x60d2c0805efd306U,
  0xcdd43b040a2b14e2U, 0x2f01f70df8f0ae26U, 0x393cefd9e5f500edU, 0xf4c8fbba000df432U,
  0xdddf0e04ff1110d4U, 0x9ede7e1dfefbe09U, 0xb6fe1bfc0b1bf1d1U, 0xe8ffeef00ae1f8ddU,
  0xf90be81af115ed16U, 0x7c604c718d7230cU, 0xc0402f511fc1340U, 0x2d05ce07eb2bd5deU,
  0xb3f1d81d0d1cd014U, 0xab0afa21f40325e9U, 0xd1171f170ddf13fdU, 0x1a0511edb1d0df04U,
  0xc9ed0fbb01070116U, 0x150047fbd3bdbbd1U, 0xfb0a59f0d2191b07U, 0xd01033d0d8fccb19U,
  0x9c210e6fefc220fU, 0xf1f10205c61e17edU, 0xb41eefd702fb019dU, 0x2fffdffd709daeeU,
  0xd8c62b0eede9ca07U, 0xb20b36e7bbfab303U, 0xebd5f505df0e19f6U, 0x905f90ae6fd05f9U,
  0xc2f10ecf0270b87U, 0x14f726171529fbc5U, 0xd2da4d23f937b4efU, 0x5fbfefad919fbe0U,
  0xd9eb05eedc0d15f0U, 0x1d1df11588fdb203U, 0x30a2d30f2609f39bU, 0xb06bd0d09d0d1ccU,
  0x71c3a810de1dc2dU, 0x5dacdf9231b0b00U, 0xd8e102fcf90f0b0aU, 0xeaea19f22e03d6c1U,
  0xeff6e300a9e2e52dU, 0xe203d70bf312e88cU, 0x180520c5fef4f4fbU, 0x1d801fc24330effU,
  0xa5f4e703f2ecd506U, 0x1af8f2f0f10a0f02U, 0xf9950814e60219e6U, 0xe24d909ff1f00f5U,
  0x30eb54f70be21605U, 0x15b4e10518f2dee7U, 0xa80c17eb16010b0fU, 0xf6f507b8151908f3U,
  0xd1107fdfadc1b0dU, 0x4e7fbd7de05ce0fU, 0xcd11fd08f722010aU, 0x4fbf91ffdd6c42bU,
  0xf125e8d702f8ca0cU, 0x12e6e8ed13f7e8efU, 0x7d913e01df7dfebU, 0x19d803090234c6f7U,
  0x1f61ee4f7fbfa09U, 0xd7eeaf022509ed0fU, 0xb2a809caf1fb1ef4U, 0x22d3d8e00f1ced89U,
  0xeb9dec23c2e1b536U, 0x506d60f05ff0511U, 0x7ccee00f7f8e0f6U, 0x1ce0cf16ecead9U,
  0xea1107eff3cc070aU, 0xdbe83007ece40eebU, 0xfc22faf60ed1cd06U, 0xeee1d0c0aeeaf114U,
  0xf0f106e719f72405U, 0x1120df8b581f530U, 0x112fe1216d6d706U, 0xdbeb04060402051fU,
  0x13c809f8f1e709e6U, 0xf0cd701f0fc3111U, 0xf0210f120103e3d9U, 0xf9e9daeca314f3feU,
  0xe70818ff010a10ffU, 0xeafcdec42b07f011U, 0xf604ddef02cc182bU, 0xdd9031106210cU,
  0xddd61b1f13b3c7e9U, 0xc0e10f4ee32f6daU, 0x70b13fbccef1d11U, 0xca1a0ffe04ec1a02U,
  0xe8f90cf710f7ec02U, 0xfa070afeace60afbU, 0xd0237f30d17fdecU, 0xc2beefed7c02a14U,
  0x13fdf61402f21917U, 0xfae70321012ff9efU, 0x11fa0902f30906c9U, 0xf0600ee1de31a07U,
  0x1f01f513ee0306f2U, 0xf205fecdc400ff16U, 0x10f1b03f3172dfaU, 0xfc1707f910ebd904U,
  0xc18f317fdf90d08U, 0xb1304160df408f0U, 0xdef20c000a00dbf8U, 0x24151b020cf7f6e6U,
  0xf06f2fec4020d01U, 0x1a18fcfddcf40b2bU, 0xf4fafeec07f81306U, 0xd10bfd0024cf1222U,
  0xf508fee104ef00U, 0xfac6f7080bd9e71dU, 0xc60cced6961e14d7U, 0xd0d81dfff0bcdceU,
  0xf1eaf6dfc7f3e516U, 0x1dd031bddf2f300U, 0xfeedf8ebc40d00f4U, 0x8f4ef0b0bd3d305U,
  0x1109d5eaeedfedcfU, 0x13da0b07fb21d708U, 0xea240fccf1c80415U, 0x22f50bea0009feU,
  0xdee41814bf2110f7U, 0x91319e8d9c20305U, 0x2fc0d1ad70e1debU, 0x3fdbf2ffeeaf623U,
  0xfff709130df0edfaU, 0xbb02fff71dfcf717U, 0xfd03fc121120020aU, 0xf7d419f912160befU,
  0xf9e4f4f3df0dfbdfU, 0xeefccfcdfbe2ef09U, 0xfcf7081cec08f80fU, 0x14d5f2d8e4e2f4f2U,
  0xebeaf906e7edfe15U, 0x6f10123e8f2c40aU, 0xe91803fa0cbbee2aU, 0xecef07f40bf7fb19U,
  0xfc00e5d601f9f8f0U, 0xef05091700fd080cU, 0x900df1ffd70f12f4U, 0xf4eff9f104eb08f9U,
  0xf309fee3f410ffe1U, 0x7faa2ee160cee27U, 0xfc0d0cf9f22eed15U, 0xfeed06f8f6f9f2fcU,
  0xe804f3e70114e1fbU, 0x6db03f410f60fe8U, 0x251314f6dbff0bf7U, 0x18f9e7d8f2fde103U,
  0x11ff0803ee160d05U, 0xfae2d6e003ecd2edU, 0x4e6fcfcfce5f514U, 0xf203fc09d7df05fbU,
  0xdf2171916dbf327U, 0x1417f8e705f8e60bU, 0x291003f0daf111f2U, 0x1613f9180901ddf0U,
  0xca1a1505cb08f5f0U, 0xea20e225ec070df4U, 0xfff801f1151d0ee6U, 0x2b24f8ea01fe0201U,
  0xf91208299f04210bU, 0xf1d50a0a03c30511U, 0xf2f21c1500021b09U, 0xb01f3140df8fb06U,
  0xf1e6f4f109f7f6efU, 0xe2160622ec080d2bU, 0xf20401f929fddf0dU, 0xf607fa18faeedefaU,
  0x14e82011f3f41400U, 0xeff4dff90de1f603U, 0xdb9fceff10bfcf7U, 0xebe6ff15f1f70619U,
  0x2eee3fe0b0e01eaU, 0xfbfc020e1302122bU, 0x90e1ccd1af300fcU, 0xd901f34008cdf71eU,
  0x7ee07eff20601fcU, 0xfcdd03290bf9fbfaU, 0xfcc7ddf4f00b201bU, 0xe3f1fefce0140a0dU,
  0x80cfde601f61405U, 0xee3c9ff13e5efc6U, 0xeaebfc05f6f11412U, 0xf0e90e9616eec4b5U,
  0x7a0def6e1c2f911U, 0x800d804fdf5ead6U, 0x101b23d003f4e30aU, 0x17fea7deee20e8f0U,
  0xd005eef50d0be810U, 0x8911ace0ef2be81U, 0x11cdd805cecae108U, 0x27dddd1017f51fceU,
  0x28fbfe06eb0bcf03U, 0x6efb3fd210705d5U, 0xfa020500e4e9ec1bU, 0x18ccf8c511e906acU,
  0xc28cae701c9fd13U, 0xe9f3dee409170b19U, 0xe1fdc72f00f201f7U, 0x20b260bbbf700ecU,
  0xe9181a0a0e1534feU, 0xf111ee1308d923f4U, 0xee19d6fa2317ff1fU, 0x15eef00dfd2609dbU,
  0xc5dfe9f40c1fcdffU, 0xf102fefe96ffdd08U, 0xf0fe0411b70409f0U, 0xf5d9e801e1f5192bU,
  0xff1df9ec11fbdae7U, 0x210209ecf00fe327U, 0xb7f202f3e318e306U, 0xe0f9fc07f616e42fU,
  0xcfb180c06f0ff05U, 0x14fde512e1f60a0cU, 0x1a0e0513150603e1U, 0xe5c6b2fd8e1ca4eeU,
  0x2c11805dfe905f7U, 0x21fff20d1bf1c604U, 0xfa2f020603e01b1aU, 0xf6f80d04091f15f3U,
  0xfe02f3320428070dU, 0xfd0afbeff1090205U, 0x13f50515f6f00625U, 0x17fa04ef1bdae00aU,
  0xfb0b20fc08162222U, 0x402e8fc11fdf01cU, 0xf0d6f9e70fe8f220U, 0xeedbfe1413ffe807U,
  0xd010a09f6f7f3efU, 0xe7e5c5030afbfd17U, 0xbe0cdf5faf00af2U, 0xcc80d0002f9fff6U,
  0xfc051ef7faf0d919U, 0xe0d3e3f1aa00b90aU, 0xf6a239f5f4fb19ffU, 0x71226fbeda7ad11U,
  0x240afa0df881c205U, 0xe6de0c140916f1edU, 0x11f2f5ea0ffa0dbdU, 0x6110eebf106f303U,
  0xe5ea1404f8fffb01U, 0x50c032ce6d7c308U, 0x13f5030c0e14da04U, 0xa06d2011de8ffe9U,
  0xf7d9f2d01dc00602U, 0x1df008e31901e1efU, 0x240417fefd250ee8U, 0xec17ccf4f006e6d6U,
  0xe80dfd0915040800U, 0x26e0f00d18dfeabcU, 0xf5fc26dcfd0d0c16U, 0x1533bb0bd5cccbe4U,
  0xf92919b5f80ae4d6U, 0xe7d6172d12df13fcU, 0x13bb06fefbd51e0eU, 0xb121908e617e8f8U,
  0x141615a3f30d0ac4U, 0x140e04dcce0ce3cfU, 0x161e11e9ecf2f5e7U, 0xe302180ad8f2e0eaU,
  0xf4f712fefa04fbf4U, 0xf217f2fff4eac6f4U, 0x27080ba003effbaeU, 0x27e902cceb13cfcdU,
  0xc6dde00a0a14eef0U, 0xdf240105d821dbe7U, 0xe70109140cfff1e9U, 0x18111514f0feeb1bU,
  0x26e5f0000d16fde8U, 0x2de0ce8fff30507U, 0x121e1ffeee1f10f7U, 0x1297aae606f3e7fbU,
  0x8c9edfbf404fce8U, 0x41005230d23ff09U, 0x18abf324e2f2de0fU, 0x2af8281cd937c30fU,
  0x15e3f1f404e3ec17U, 0x3febd60d19f905d8U, 0x13e717fa0cb51512U, 0xdfe419181b10de0fU,
  0xd921db2ff5e703f3U, 0xd917011d06b1ff12U, 0xf202fdf4ec9ffbefU, 0x3c3329c123d91af9U,
  0xed47d129f2f0d3c6U, 0xbdfa0c0f0cbfe7eeU, 0xf3edb1ee0ecfc6ffU, 0x3bd8e71c01e0f334U,
  0x291611e100e00debU, 0xe9ffe8fa1a0cc220U, 0x51bf9f1e310000aU, 0xf117d8f31efd108dU,
  0x16cabf0613a4c714U, 0x307d10b0f1606ccU, 0x1acc291321e6b6efU, 0xffe5fed4f41400f4U,
  0xf81100fee8f11026U, 0x100511e3f6fad303U, 0xd317daf41f02d305U, 0xd405e9ed2dd50effU,
  0xa8dd11271bbef5f6U, 0xc51317f607fcfecaU, 0xe60d07de810a1accU, 0xf40febf6e6fae5ecU,
  0x1b1b0cb747ebdb16U, 0x1df115122befb3fcU, 0xa8f725eec2c008c5U, 0xb23618c9a30ff931U,
  0xd08faf6fb3c0af6U, 0x132bcfe7f3d3f31eU, 0xceebda04de09e627U, 0x142c1002110bf702U,
  0xa7c909051cf1dbe6U, 0x9a07f3f0c314d1f6U, 0xe80a0d0daa152803U, 0xe512e209d7e30a12U,
  0xbc3012eae8fc0b0cU, 0xedfde1e5e3da08f7U, 0xf1f9110a0320f9feU, 0x1011182b1de8ed13U,
  0xcbf8f1ecf402efe2U, 0xe335ef04cc361bfdU, 0xfd03fcfc340c0ce7U, 0x10fffd100107f4efU,
  0x8060f05e30efe0eU, 0xfee406140c0cfc06U, 0x3e5f41904fef1e6U, 0x3b61e0706fefaf8U,
  0x9f1f802f3f6fafbU, 0x5e405feeb069607U, 0x8da04f5d9d7f914U, 0x111fdeafcf8eb0bU,
  0x17fdf8ffecd2f6e6U, 0x7f7f904090806efU, 0x300fcff00fcf6f8U, 0xe0010efe05ecf611U,
  0xf2ee08ffaf03fe08U, 0x6150581edfee2dcU, 0xb2421ffeaf7e184U, 0x6f1090317ffdbeaU,
  0xfaf3010303f8ebffU, 0xf9fcfe021408ee0aU, 0x4f802001602f80fU, 0xf8221100061a04fdU,
  0xe1fd200eff00030bU, 0xc141cfc07d500f6U, 0xf15fa04e90cfc0cU, 0xff2f5f60e0fd1f6U,
  0xffe509ebf2d105eeU, 0x2f503f2180e4705U, 0xf2e4f00414dce215U, 0xe714f3f80fee0515U,
  0xfff4fced0727fa14U, 0xeef6ead803e5e7ffU, 0xbecf7eff3f4fae9U, 0x3e703de01ff1003U,
  0xfaf9c2ebdefcdef9U, 0xeb03f6fcf2feed06U, 0x2fd0c0414e1fc0bU, 0xc09fc05f809f8e6U,
  0x303eedd0b07dceaU, 0x607190ef60ee50dU, 0xfdfd0b100cf0d0ffU, 0xfd081ff90209f8fcU,
  0xf3ff01f8e30a00ffU, 0x3fff60df6dfa609U, 0xf071b02f414e8fcU, 0x9fd04fd030db0ffU,
  0x50cf01009de2416U, 0xecf30e07030aec01U, 0xf206fd03e821f309U, 0xfaf7fff708d8fc04U,
  0xe2dff11310fb020cU, 0x7f8fc9eeef0e0ebU, 0xf70de3fae8f416e6U, 0xd3f00416f6ffd121U,
  0x10f008fb0be5fff9U, 0x9c3f201eff0d8f1U, 0x5f41a1002dcf121U, 0xdfce510f5f9f6faU,
  0xf70e04f401e0efdbU, 0x5d8070717f4fcfcU, 0xf60e0ef50b0f120bU, 0x1af8e31209e709f1U,
  0x81d20c1506f6fc0dU, 0x1505f9eff605e5U, 0xfd16edf3f00c11c2U, 0xedf9da020bf6e801U,
  0xf10205f612e2100bU, 0xf0f5ec1706eb0af3U, 0x4e30815cf09faefU, 0xfa150af50fe8f6f7U,
  0xdfdeae8170205e7U, 0xe6f6f716e30ad604U, 0x9eefafbf7fff0f7U, 0xe5e1efec11f6edf4U,
  0xfef900e807e1fcf0U, 0xf307010f0dfdf1e9U, 0xf307fb03fe10c9e8U, 0x71103f4fc0e0001U,
  0xf8f9ff01f2f7f5eeU, 0x81805ea12cc05f1U, 0x5040c0212f4f30aU, 0xfced041e1912eaU,
  0x505d6fc07fbfae0U, 0xfa0ee403080ef8eeU, 0xfd02f30a090df9efU, 0x1010aeafb09f801U,
  0xe01ef02f5e5f1fcU, 0xee8fc0606e9f9f2U, 0x19f90bf510e90c0cU, 0x12f20bfd061804e7U,
  0x10508f601091500U, 0xd2f9fee1eeff17U, 0x2d408f706fffaf1U, 0xff1f030a03f914U,
  0x1f4ca04fcedcf0bU, 0x3090b0801fffa1aU, 0xfffcf60000000703U, 0x402f0ded6f90b1aU,
  0xd1fcfbfd0c0401fbU, 0xf5f3100304060308U, 0x1a149ce3110aee02U, 0xf5ffdafb10edf70bU,
  0x10100fe00e40707U, 0xe4fd050bffef0c06U, 0x8050ae6eded0cebU, 0xe9f4f80304fc0610U,
  0xec03f8dd1ffcf412U, 0xe90afc0914fb0209U, 0xe2faf8e70cfbf110U, 0xcbae607fec404ecU,
  0xc80815fafa19cbbbU, 0xdd060e1efe1004f2U, 0x1fdda01d1f4e3f6U, 0x40304fa0dcde5e5U,
  0xe5090ccb1bf31ef6U, 0x8d407fa08d506f5U, 0xffff0cfef9170fa7U, 0xf0e613f313f8e708U,
  0xed0adbf2f7f10df4U, 0xe100e0e30debc8eaU, 0xcf41ffad903d306U, 0x1af5f3f6dff208fdU,
  0x1f7131e09021090U, 0xf8fbef1a07efe60bU, 0xa020f1112020812U, 0xed06da130c0df10bU,
  0xe06edfafae7f9ffU, 0xd30017f3d4edebU, 0xf8fc120705f3e6d8U, 0xf60dfe2eec20f40dU,
  0x11f9e0ab060e05edU, 0xde11e5fff6e7faf6U, 0xef0e11f50909eef6U, 0xfeee010f0b06fefcU,
  0xfe0b0003d9fcfbc3U, 0xf1fa0f23f50df4fcU, 0xc21df5def0f9fae1U, 0xe605ee99f7f709fbU,
  0x3000cf5df06d90cU, 0x920040dfa0b0ff7U, 0xfa04f40b2202f4e3U, 0xfc04021c07fdfb0aU,
  0x1d0113fd18fafa0aU, 0xf8e7e30407060cf6U, 0x5f3d712fd00fb04U, 0xed200ed0707e9f3U,
  0xe90d0df9e126e704U, 0xe216f2dbf01bfce8U, 0xffedeca9fc1921f9U, 0xf30df4130cd8d3faU,
  0xf9fe130a1c1cd30bU, 0xdcd3fd08ebfd00f8U, 0xf80903e8ec1706e3U, 0xf11708fefe030dfaU,
  0x14faef03100808f4U, 0xf0030381f8fbf706U, 0x2ec12ebfe10c20aU, 0xfd02f8ffde07ff02U,
  0xf908ed0c030305b1U, 0xf622fe0afd130811U, 0x1a020df801040305U, 0xaf5f9070a0cf924U,
  0x9e107eafdfd19faU, 0x19fdfb26df05e80aU, 0x713fdf511e7f3e3U, 0x11110826f804f0U,
  0xe01bdc0406e1f2fcU, 0xcb08220427f4caf5U, 0xcb0d15dfcce8050bU, 0x400f6c7fee813faU,
  0xb2d72b3417dbdee6U, 0xe50d1bf0f1ef00deU, 0xc034fd01481b12ddU, 0xc02b60a02c400f8U,
  0xf2fbe6f2f803d6f4U, 0x1ddcfeef0f14f5caU, 0xecf215e7fb080505U, 0xfbef0bf005f7f4f6U,
  0xabf206ebfd19fc2cU, 0x505efe0f308faf8U, 0x10c0b11fb13eafeU, 0x1106f82e0ceffd12U,
  0xcfd40f0c16e0e018U, 0x1fe01ede10ee6daU, 0xcc1301e817fb0feeU, 0xbef6fa1306e1d4fbU,
